<unk>	0
<s>	0
</s>	0
..	-0
영화	-1
▁영화	-2
▁이	-3
...	-4
▁아	-5
▁재	-6
▁보	-7
▁그	-8
ᄏᄏ	-9
▁정	-10
너무	-11
니다	-12
▁좋	-13
▁재미	-14
!!	-15
▁나	-16
는데	-17
▁너무	-18
▁없	-19
▁진	-20
▁다	-21
▁최	-22
▁감	-23
▁내	-24
▁어	-25
▁하	-26
▁지	-27
▁재밌	-28
....	-29
▁정말	-30
▁1	-31
▁연	-32
▁사	-33
네요	-34
▁시	-35
▁한	-36
지만	-37
▁만	-38
▁있	-39
▁스	-40
▁안	-41
하고	-42
▁봤	-43
으로	-44
▁가	-45
▁평	-46
▁진짜	-47
▁기	-48
▁최고	-49
어요	-50
에서	-51
▁전	-52
▁대	-53
▁무	-54
▁마	-55
▁연기	-56
▁평점	-57
▁ᄏᄏ	-58
▁여	-59
▁수	-60
▁잘	-61
하다	-62
▁모	-63
▁이런	-64
이다	-65
▁더	-66
▁생	-67
▁왜	-68
하는	-69
▁않	-70
▁오	-71
▁주	-72
드라	-73
습니다	-74
▁제	-75
▁개	-76
▁말	-77
토리	-78
드라마	-79
▁감동	-80
▁인	-81
배우	-82
~~	-83
▁별	-84
▁볼	-85
▁유	-86
▁지루	-87
▁재미있	-88
▁본	-89
▁생각	-90
▁소	-91
▁쓰	-92
▁미	-93
▁스토리	-94
▁못	-95
▁보고	-96
▁알	-97
▁남	-98
▁자	-99
레기	-100
ᅲᅲ	-101
보다	-102
었다	-103
▁같	-104
들이	-105
▁완	-106
▁10	-107
하게	-108
▁느	-109
▁우	-110
까지	-111
▁드라마	-112
▁재미없	-113
▁그냥	-114
▁역	-115
▁뭐	-116
▁2	-117
▁비	-118
▁장	-119
▁일	-120
^^	-121
▁조	-122
▁공	-123
▁중	-124
;;	-125
▁작	-126
▁쓰레기	-127
▁내용	-128
▁많	-129
▁명	-130
▁만들	-131
▁웃	-132
▁끝	-133
이라	-134
▁감독	-135
??	-136
▁배우	-137
▁것	-138
▁이거	-139
▁좀	-140
▁애	-141
▁아니	-142
적인	-143
▁사랑	-144
▁부	-145
▁최고의	-146
▁봐	-147
액션	-148
▁참	-149
▁저	-150
▁반	-151
▁시간	-152
▁좋아	-153
렇게	-154
▁해	-155
!!!	-156
▁영	-157
▁좋은	-158
▁다시	-159
▁완전	-160
보고	-161
▁보는	-162
면서	-163
▁예	-164
▁고	-165
ᄒᄒ	-166
▁매	-167
▁사람	-168
▁싶	-169
해서	-170
▁코	-171
▁봤는데	-172
▁난	-173
입니다	-174
▁신	-175
▁눈	-176
▁이건	-177
▁기대	-178
지막	-179
▁실	-180
ᄏᄏᄏᄏ	-181
▁영화를	-182
▁결	-183
▁없다	-184
▁액션	-185
▁되	-186
▁없는	-187
▁작품	-188
▁노	-189
▁내가	-190
▁처	-191
했다	-192
▁영화는	-193
으면	-194
▁이게	-195
,,	-196
▁3	-197
▁거	-198
▁넘	-199
▁상	-200
라고	-201
▁좋았	-202
▁잼	-203
▁원	-204
▁영화가	-205
ᅳᅳ	-206
▁괜	-207
하지	-208
▁바	-209
▁최악	-210
지는	-211
▁마지막	-212
▁불	-213
▁추	-214
깝다	-215
▁멋	-216
야기	-217
리고	-218
▁성	-219
▁한국	-220
들의	-221
적이	-222
다는	-223
세요	-224
없는	-225
▁역시	-226
▁별로	-227
▁명작	-228
▁하나	-229
▁할	-230
다가	-231
▁처음	-232
▁재밌게	-233
▁도	-234
▁후	-235
▁지금	-236
▁평점이	-237
▁살	-238
겠다	-239
▁허	-240
▁있는	-241
▁이렇게	-242
인공	-243
▁의	-244
▁죽	-245
▁때	-246
▁강	-247
재미	-248
OO	-249
같은	-250
▁괜찮	-251
▁김	-252
▁기억	-253
▁극	-254
▁돈	-255
▁로	-256
합니다	-257
▁따	-258
▁음	-259
ᄏᄏᄏ	-260
연기	-261
▁나오	-262
▁짜	-263
인데	-264
어서	-265
!!!!	-266
▁초	-267
▁또	-268
▁아까	-269
▁몰	-270
▁잔	-271
▁구	-272
▁아름	-273
▁이야기	-274
있는	-275
▁모르	-276
▁현	-277
▁세	-278
필요	-279
한다	-280
대로	-281
▁화	-282
▁뭔	-283
▁하는	-284
▁두	-285
▁이영화	-286
▁꼭	-287
▁졸	-288
▁심	-289
▁짱	-290
▁ᅲᅲ	-291
▁에	-292
▁볼만	-293
▁이해	-294
▁연출	-295
▁그래	-296
부터	-297
에게	-298
▁관	-299
▁아이	-300
▁동	-301
▁위	-302
없다	-303
들은	-304
▁와	-305
▁많이	-306
▁우리	-307
▁슬	-308
▁ᄏᄏᄏ	-309
만에	-310
▁만든	-311
▁유치	-312
▁귀	-313
▁공포	-314
문에	-315
▁아깝다	-316
주는	-317
▁느낌	-318
▁엄	-319
재밌	-320
▁캐	-321
이나	-322
라는	-323
았다	-324
▁당	-325
▁포	-326
되는	-327
▁분	-328
▁울	-329
정도	-330
드는	-331
미디	-332
▁발	-333
▁존	-334
적으로	-335
▁ᄒᄒ	-336
▁했	-337
▁배	-338
진짜	-339
▁여자	-340
지도	-341
▁일본	-342
▁ᄏ	-343
▁요	-344
▁OO	-345
▁말이	-346
봐도	-347
▁망	-348
▁박	-349
ᅮᅮ	-350
리는	-351
구나	-352
▁마음	-353
▁스릴	-354
▁매력	-355
▁차	-356
나는	-357
였다	-358
▁가슴	-359
▁줄	-360
▁ᄏᄏᄏᄏ	-361
▁낮	-362
을까	-363
▁점	-364
▁막	-365
인가	-366
▁무슨	-367
▁반전	-368
리즈	-369
▁결말	-370
▁ᅳᅳ	-371
▁흥	-372
▁가장	-373
.....	-374
▁이상	-375
▁힘	-376
▁필요	-377
▁뻔	-378
▁장면	-379
▁소재	-380
▁들	-381
하나	-382
▁재밋	-383
▁단	-384
▁보여	-385
▁보면	-386
▁인생	-387
▁눈물	-388
▁영화다	-389
시간	-390
는다	-391
것도	-392
▁같은	-393
▁아닌	-394
▁.	-395
▁속	-396
▁..	-397
▁보기	-398
하지만	-399
하기	-400
었는데	-401
▁애니	-402
사람	-403
지마	-404
▁짜증	-405
▁아무	-406
▁좋다	-407
아서	-408
없이	-409
▁절	-410
▁없고	-411
▁서	-412
▁높	-413
▁솔	-414
▁긴	-415
▁재밌다	-416
▁걸	-417
▁굿	-418
▁표	-419
▁있다	-420
▁충	-421
▁설	-422
▁그런	-423
▁누	-424
▁아름다	-425
▁드	-426
▁특	-427
▁20	-428
▁빠	-429
▁음악	-430
보는	-431
아요	-432
........	-433
가는	-434
▁원작	-435
▁주인공	-436
▁리	-437
▁코미디	-438
점이	-439
▁남자	-440
었던	-441
▁극장	-442
▁현실	-443
하면	-444
▁아직	-445
▁맞	-446
▁간	-447
었음	-448
스럽	-449
▁몰입	-450
▁봐도	-451
▁9	-452
니까	-453
▁4	-454
▁솔직	-455
▁그리고	-456
▁8	-457
▁영상	-458
▁...	-459
▁선	-460
▁머	-461
스러	-462
메이	-463
스터	-464
정말	-465
▁봤다	-466
▁다른	-467
더라	-468
▁계	-469
▁대박	-470
▁한번	-471
▁만들어	-472
▁억	-473
▁과	-474
된다	-475
▁최악의	-476
준다	-477
▁추천	-478
밖에	-479
인지	-480
▁0	-481
▁여운	-482
▁잔잔	-483
▁끝까지	-484
▁이제	-485
최고	-486
▁대한	-487
▁재미있게	-488
▁잼있	-489
▁새	-490
▁엄청	-491
▁실망	-492
▁적	-493
▁돌	-494
지않	-495
▁-	-496
▁7	-497
▁언	-498
▁몇	-499
▁전개	-500
다니	-501
중에	-502
▁건	-503
~~~	-504
▁수준	-505
▁피	-506
▁인간	-507
타임	-508
▁이걸	-509
점도	-510
▁재미없다	-511
▁게	-512
▁파	-513
▁정도	-514
▁순	-515
▁솔직히	-516
▁5	-517
▁얼	-518
▁듯	-519
나오	-520
▁아주	-521
▁방	-522
▁올	-523
었어요	-524
나서	-525
10	-526
하네	-527
▁모든	-528
릭터	-529
▁많은	-530
▁열	-531
영화는	-532
▁뭔가	-533
▁억지	-534
▁야	-535
던데	-536
▁근	-537
▁프	-538
만들	-539
▁딱	-540
▁즐	-541
는지	-542
▁'	-543
▁긴장	-544
▁웃기	-545
▁호	-546
▁독	-547
했던	-548
고싶	-549
▁욕	-550
▁모두	-551
▁연기력	-552
▁레	-553
이지	-554
▁대단	-555
▁먹	-556
▁답	-557
▁약	-558
때문에	-559
▁엉	-560
▁찍	-561
에요	-562
▁버	-563
▁집	-564
려고	-565
리가	-566
▁믿	-567
에는	-568
▁찾	-569
봤는데	-570
▁제목	-571
▁흥미	-572
▁외	-573
나라	-574
▁봐야	-575
하네요	-576
을때	-577
▁하지만	-578
▁내용이	-579
▁베	-580
▁오랜	-581
기도	-582
다고	-583
스트	-584
▁재미도	-585
해요	-586
수가	-587
▁보다	-588
▁문	-589
▁크	-590
▁개봉	-591
▁배우들	-592
수록	-593
▁시리즈	-594
▁전혀	-595
_-	-596
▁갈	-597
▁놀	-598
▁어디	-599
▁스릴러	-600
▁아니다	-601
▁행	-602
주인공	-603
▁그래도	-604
▁편	-605
지고	-606
▁아쉽	-607
▁가족	-608
없고	-609
▁아까운	-610
감독	-611
▁나온	-612
는거	-613
▁아름다운	-614
▁치	-615
떻게	-616
▁받	-617
▁잊	-618
떨어	-619
▁영화의	-620
▁알바	-621
감동	-622
생각	-623
▁출	-624
▁잠	-625
▁함	-626
전에	-627
엔딩	-628
장면	-629
내용	-630
▁왜이	-631
영화가	-632
▁^^	-633
▁공감	-634
▁기분	-635
▁재밌어요	-636
이고	-637
▁어설	-638
▁어이	-639
▁계속	-640
▁달	-641
이는	-642
▁따뜻	-643
▁손	-644
▁교	-645
난다	-646
▁보고싶	-647
▁킬	-648
▁않은	-649
스토리	-650
▁진심	-651
▁연기가	-652
▁긴장감	-653
▁감동적이	-654
▁경	-655
▁만드는	-656
어야	-657
있다	-658
내내	-659
▁카	-660
▁제일	-661
▁캐릭터	-662
▁같다	-663
했는데	-664
▁보다가	-665
▁나름	-666
▁내내	-667
처럼	-668
▁삶	-669
리스	-670
▁남는	-671
▁나는	-672
점은	-673
친구	-674
에도	-675
이상	-676
▁어떻게	-677
이네	-678
▁네	-679
▁질	-680
▁홍	-681
▁ᅲ	-682
▁싸	-683
▁최고다	-684
라도	-685
리오	-686
보면	-687
▁내용도	-688
▁시간이	-689
▁괜찮은	-690
▁싶다	-691
▁조금	-692
라리	-693
이랑	-694
▁않고	-695
▁천	-696
인듯	-697
▁연기도	-698
년대	-699
▁않는	-700
▁악	-701
기는	-702
건지	-703
진다	-704
▁부족	-705
ᄃᄃ	-706
;;;	-707
▁아직도	-708
▁나왔	-709
대체	-710
▁수작	-711
▁막장	-712
▁여운이	-713
▁영화라고	-714
만한	-715
없음	-716
▁무섭	-717
▁싶은	-718
~~~~	-719
▁디	-720
어도	-721
▁멋진	-722
~!	-723
???	-724
▁로맨	-725
▁나오는	-726
▁형	-727
아니	-728
▁그렇	-729
훌륭	-730
▁표현	-731
라이	-732
▁나도	-733
▁삼	-734
▁옛	-735
▁케	-736
으나	-737
이야	-738
▁오랜만에	-739
▁뻔한	-740
▁뭘	-741
▁신선	-742
▁담	-743
▁귀여	-744
▁근데	-745
▁느껴	-746
▁시작	-747
▁요즘	-748
▁노래	-749
ᄏᄏᄏᄏᄏᄏᄏᄏ	-750
▁날	-751
주고	-752
▁미국	-753
▁아쉬	-754
▁강추	-755
구만	-756
▁데	-757
▁무서	-758
▁점수	-759
▁장난	-760
▁때문에	-761
아까	-762
▁유쾌	-763
▁메	-764
으로도	-765
▁추억	-766
▁킬링	-767
▁하고	-768
▁그저	-769
▁영화에	-770
▁제대로	-771
▁떨어	-772
나요	-773
▁감독이	-774
▁대사	-775
로운	-776
▁언제	-777
▁자체	-778
▁지루한	-779
▁영화입니다	-780
▁걍	-781
▁아니라	-782
▁떠	-783
군요	-784
치는	-785
▁만화	-786
▁정신	-787
▁B	-788
성이	-789
스러운	-790
만큼	-791
▁좋고	-792
▁슬프	-793
▁훌륭	-794
▁OOO	-795
▁스토리가	-796
▁6	-797
▁너무나	-798
▁재미가	-799
▁산	-800
같다	-801
이란	-802
,,,	-803
▁봤습니다	-804
▁어릴	-805
▁나와	-806
▁제작	-807
기가	-808
▁어린	-809
▁허접	-810
스팅	-811
▁봤던	-812
▁졸작	-813
이라는	-814
▁지루하고	-815
▁ᄒ	-816
▁아깝	-817
한영화	-818
▁앞	-819
지루	-820
ᄍᄍ	-821
▁절대	-822
▁뒤	-823
나게	-824
▁모습	-825
▁티	-826
▁황	-827
▁이유	-828
▁영화였	-829
▁낚	-830
점대	-831
▁영화로	-832
▁싫	-833
디오	-834
▁지루함	-835
들을	-836
거리	-837
사랑	-838
할수	-839
▁차라리	-840
영화를	-841
었습니다	-842
학교	-843
▁헐	-844
▁좋았다	-845
나리오	-846
▁이딴	-847
▁중간	-848
▁없음	-849
▁주는	-850
▁행복	-851
▁타	-852
▁출연	-853
하면서	-854
▁보세요	-855
▁개인	-856
▁빼	-857
▁훨	-858
이가	-859
해도	-860
▁알았	-861
▁의미	-862
메이션	-863
▁재밌음	-864
꿀잼	-865
럽게	-866
▁도대체	-867
▁물	-868
▁토	-869
▁감독의	-870
▁재밌는	-871
▁포스터	-872
▁지루하다	-873
▁킬링타임	-874
▁스타	-875
▁아름답	-876
......	-877
▁용	-878
▁니	-879
▁복	-880
기에	-881
쓰레기	-882
▁스토리도	-883
▁목	-884
한데	-885
한테	-886
▁코믹	-887
▁좋아요	-888
▁소름	-889
▁보게	-890
▁세상	-891
▁t	-892
좋아	-893
▁답답	-894
▁될	-895
들도	-896
이라고	-897
낭비	-898
이런	-899
▁되는	-900
나고	-901
리지	-902
▁C	-903
▁ᅮᅮ	-904
▁완벽	-905
이네요	-906
▁만들었	-907
▁봤어요	-908
▁희	-909
▁글	-910
▁빨	-911
▁각	-912
▁좋아하는	-913
▁판	-914
▁영화관	-915
▁등	-916
▁후회	-917
재밋	-918
평점	-919
▁아니고	-920
▁양	-921
▁공포영화	-922
▁그러	-923
▁웃음	-924
기를	-925
▁낫	-926
▁무엇	-927
재미있	-928
▁첨	-929
▁국	-930
▁깊	-931
▁청	-932
▁기억에	-933
보단	-934
▁인상	-935
▁느끼	-936
▁전쟁	-937
▁보면서	-938
▁변	-939
▁보지마	-940
▁한국영화	-941
▁진정	-942
▁시나리오	-943
▁다큐	-944
▁엔딩	-945
마다	-946
▁옛날	-947
▁관객	-948
작품	-949
▁분위	-950
▁길	-951
▁된	-952
▁통	-953
▁오래	-954
▁우리나라	-955
▁뛰	-956
더니	-957
▁보는내내	-958
소리	-959
야지	-960
▁당시	-961
▁예술	-962
▁힘들	-963
▁마지막에	-964
▁!	-965
▁친구	-966
▁모르겠	-967
▁환	-968
▁임	-969
▁극장에서	-970
▁진부	-971
것이	-972
레이	-973
▁영화도	-974
▁"	-975
▁준	-976
말이	-977
▁살아	-978
▁맘	-979
♥♥	-980
▁왠	-981
▁클	-982
그냥	-983
치고	-984
동안	-985
점을	-986
지가	-987
▁몸	-988
시길	-989
▁애니메이션	-990
▁함께	-991
▁식	-992
▁갑	-993
▁영화중	-994
▁어색	-995
▁시대	-996
▁안되	-997
봤다	-998
▁꽤	-999
정이	-1000
▁안타	-1001
▁T	-1002
▁확	-1003
만든	-1004
웠다	-1005
▁충격	-1006
마디	-1007
▁배우들의	-1008
▁태	-1009
st	-1010
렸다	-1011
▁브	-1012
▁이해가	-1013
▁총	-1014
▁흐	-1015
을듯	-1016
▁이쁘	-1017
▁못한	-1018
해지는	-1019
▁초반	-1020
▁궁	-1021
하는데	-1022
▁영화네요	-1023
▁깨	-1024
▁종	-1025
▁팬	-1026
▁걸작	-1027
▁제발	-1028
▁존나	-1029
이지만	-1030
개도	-1031
한거	-1032
노잼	-1033
성도	-1034
▁미친	-1035
▁보지	-1036
▁모르겠다	-1037
▁캐스팅	-1038
▁잡	-1039
▁러	-1040
▁암	-1041
▁꿈	-1042
▁불쌍	-1043
▁감동이	-1044
▁뿐	-1045
버린	-1046
▁오늘	-1047
▁똥	-1048
▁은	-1049
편이	-1050
▁색	-1051
했음	-1052
▁더빙	-1053
▁어렸	-1054
▁백	-1055
▁큰	-1056
▁영화라	-1057
▁재미없음	-1058
는게	-1059
인줄	-1060
좋은	-1061
▁그만	-1062
▁엉성	-1063
oo	-1064
그래	-1065
▁사실	-1066
▁충분	-1067
건가	-1068
▁지나	-1069
이버	-1070
▁역사	-1071
▁범	-1072
▁이정도	-1073
▁으	-1074
▁폭	-1075
▁매우	-1076
아깝다	-1077
▁노잼	-1078
▁없이	-1079
나마	-1080
▁중국	-1081
▁있었	-1082
▁어설픈	-1083
,.	-1084
▁돋	-1085
▁둘	-1086
▁결국	-1087
▁성룡	-1088
▁비디오	-1089
▁~	-1090
▁패	-1091
▁순수	-1092
▁주연	-1093
▁감동적인	-1094
▁귀엽	-1095
이야기	-1096
▁가슴이	-1097
▁혼	-1098
▁빠져	-1099
▁재밌고	-1100
▁개인적으로	-1101
주의	-1102
▁상상	-1103
▁어떤	-1104
▁얼마	-1105
▁병	-1106
▁잔인	-1107
보고싶	-1108
이거	-1109
▁몰입도	-1110
멜로	-1111
▁연기는	-1112
▁뭐야	-1113
다면	-1114
분이	-1115
▁실화	-1116
당히	-1117
▁초딩	-1118
▁안되는	-1119
-_-	-1120
▁돌아	-1121
▁볼수	-1122
▁감동도	-1123
▁뛰어	-1124
▁잔잔한	-1125
▁민	-1126
▁간만에	-1127
완전	-1128
해야	-1129
▁여러	-1130
했지만	-1131
거지	-1132
▁주제	-1133
▁쓰레기영화	-1134
▁먼	-1135
▁찾아	-1136
▁....	-1137
인생	-1138
▁아무리	-1139
▁광	-1140
▁약간	-1141
▁장르	-1142
▁눈물이	-1143
▁너	-1144
보니	-1145
린다	-1146
▁이름	-1147
▁블	-1148
▁마음이	-1149
▁한마디	-1150
00	-1151
인이	-1152
▁기억이	-1153
▁재미있어요	-1154
▁굳	-1155
▁훈	-1156
▁없었다	-1157
▁터	-1158
▁배경	-1159
적이다	-1160
▁생각보다	-1161
▁o	-1162
▁탄	-1163
영화의	-1164
▁내용은	-1165
▁S	-1166
시절	-1167
▁여주인공	-1168
▁숨	-1169
▁않다	-1170
▁특히	-1171
▁않는다	-1172
▁재미있는	-1173
▁위한	-1174
▁재밌네요	-1175
▁킬링타임용	-1176
▁여기	-1177
▁있고	-1178
▁잘봤	-1179
▁결말이	-1180
▁섹	-1181
????	-1182
▁맛	-1183
▁책	-1184
기만	-1185
▁않았	-1186
▁200	-1187
▁채	-1188
▁나올	-1189
▁들어	-1190
잖아	-1191
스럽다	-1192
▁s	-1193
▁입	-1194
▁첫	-1195
▁대체	-1196
▁멋있	-1197
들에게	-1198
▁재미있다	-1199
▁커	-1200
▁독특	-1201
▁얘	-1202
길래	-1203
짜리	-1204
▁궁금	-1205
▁밖에	-1206
▁100	-1207
▁재미는	-1208
▁하나도	-1209
들과	-1210
이팅	-1211
▁따라	-1212
▁작가	-1213
▁괴	-1214
▁왕	-1215
▁이것	-1216
▁하지	-1217
▁b	-1218
▁누가	-1219
▁갈수록	-1220
▁ᅳ	-1221
▁꿀잼	-1222
워서	-1223
▁보았	-1224
▁시즌	-1225
땜에	-1226
라면	-1227
▁ᄍᄍ	-1228
거야	-1229
적이고	-1230
▁아쉽다	-1231
가지	-1232
년도	-1233
놓고	-1234
▁시청	-1235
▁훨씬	-1236
▁로맨스	-1237
▁키	-1238
▁투	-1239
이건	-1240
▁엄마	-1241
▁생각이	-1242
▁영화관에서	-1243
▁영상미	-1244
~!!	-1245
▁같이	-1246
▁삼류	-1247
학생	-1248
함을	-1249
▁네이버	-1250
구요	-1251
텐데	-1252
▁감사	-1253
▁흘	-1254
▁문제	-1255
▁오글	-1256
▁한다	-1257
지지	-1258
▁두번	-1259
▁,	-1260
굉장	-1261
신이	-1262
함이	-1263
▁집중	-1264
▁진정한	-1265
▁죄	-1266
▁히	-1267
나온	-1268
력이	-1269
자체	-1270
▁없어	-1271
▁허무	-1272
▁발연기	-1273
워요	-1274
▁맘에	-1275
▁좋은데	-1276
ᄋᄋ	-1277
르는	-1278
▁에로	-1279
영화다	-1280
▁-_-	-1281
▁그나마	-1282
해라	-1283
▁그래서	-1284
▁했다	-1285
▁볼만한	-1286
▁슬픈	-1287
편은	-1288
한번	-1289
▁별점	-1290
▁화려	-1291
▁영화임	-1292
!!!!!!!!	-1293
▁군	-1294
▁번	-1295
▁휴	-1296
▁풍	-1297
다시	-1298
보게	-1299
▁티비	-1300
▁그렇게	-1301
▁?	-1302
▁끌	-1303
▁테	-1304
▁마이	-1305
▁얼마나	-1306
같이	-1307
대한	-1308
타지	-1309
▁멋지	-1310
▁이런영화	-1311
든다	-1312
▁후반	-1313
▁취	-1314
▁풀	-1315
▁느낄	-1316
▁뭐지	-1317
년이	-1318
듯한	-1319
려는	-1320
스가	-1321
전개	-1322
▁굉장	-1323
▁영화였다	-1324
보기	-1325
영화중	-1326
▁재미없는	-1327
er	-1328
▁사람이	-1329
▁얼굴	-1330
느낌	-1331
여자	-1332
▁19	-1333
▁비슷	-1334
코미디	-1335
▁흔	-1336
성을	-1337
▁말도	-1338
▁멜로	-1339
▁철	-1340
라니	-1341
▁것이	-1342
▁괜찮았	-1343
▁읽	-1344
고는	-1345
랑스	-1346
메디	-1347
▁여배우	-1348
▁c	-1349
▁전체	-1350
▁벌	-1351
▁봣	-1352
다른	-1353
수준	-1354
▁어느	-1355
▁흠	-1356
▁CG	-1357
▁개연	-1358
▁송	-1359
▁빵	-1360
▁트	-1361
을수	-1362
▁준다	-1363
▁스토리는	-1364
▁멍	-1365
가서	-1366
▁30	-1367
▁교훈	-1368
▁느낌이	-1369
▁너무너무	-1370
스타	-1371
인의	-1372
▁즐거	-1373
▁생각하게	-1374
.......	-1375
있고	-1376
자기	-1377
졌다	-1378
▁감정	-1379
▁알고	-1380
▁위해	-1381
▁보여주는	-1382
▁재밌는데	-1383
였음	-1384
▁비교	-1385
▁역대	-1386
▁같아요	-1387
▁밑	-1388
기대	-1389
하자	-1390
▁봤음	-1391
▁아님	-1392
것같	-1393
나와	-1394
머니	-1395
▁전부	-1396
▁다시봐도	-1397
▁M	-1398
▁훈훈	-1399
▁감동을	-1400
그런	-1401
리를	-1402
별로	-1403
본다	-1404
▁뭐냐	-1405
▁믿고	-1406
▁애들	-1407
주세요	-1408
▁ᄉ	-1409
론가	-1410
▁기다	-1411
▁다음	-1412
▁단순	-1413
▁상당히	-1414
▁갖	-1415
으니	-1416
하냐	-1417
▁좀비	-1418
▁구성	-1419
▁하다	-1420
대박	-1421
부분	-1422
이게	-1423
하며	-1424
▁그리	-1425
▁다운	-1426
▁봐라	-1427
시리즈	-1428
이라도	-1429
이었다	-1430
하시	-1431
▁좋네요	-1432
감이	-1433
건데	-1434
최악	-1435
▁몇번	-1436
▁알게	-1437
▁프로	-1438
마지막	-1439
▁있을까	-1440
간다	-1441
▁케이	-1442
▁영화보다	-1443
것을	-1444
모르	-1445
수를	-1446
▁바로	-1447
▁프랑스	-1448
▁O	-1449
▁봄	-1450
▁윤	-1451
년전	-1452
▁어릴때	-1453
▁이것도	-1454
▁중간에	-1455
▁배우들이	-1456
연히	-1457
▁소설	-1458
▁이후	-1459
▁똑	-1460
▁온	-1461
라서	-1462
예요	-1463
▁TV	-1464
▁주고	-1465
했어요	-1466
▁꼬	-1467
이라면	-1468
버지	-1469
▁낮은	-1470
▁설정	-1471
▁없네	-1472
▁아까움	-1473
▁이영화를	-1474
없어	-1475
▁자신	-1476
▁g	-1477
▁슈	-1478
봐서	-1479
시다	-1480
▁식상	-1481
▁전형	-1482
▁생각을	-1483
▁연기를	-1484
▁평점을	-1485
▁좋은영화	-1486
▁라	-1487
▁압	-1488
겠지	-1489
려서	-1490
아이	-1491
▁각본	-1492
▁봐서	-1493
;;;;	-1494
▁어디서	-1495
▁늘	-1496
▁흑	-1497
인다	-1498
▁어른	-1499
만으로도	-1500
▁영화인데	-1501
시키	-1502
들어	-1503
▁뭐가	-1504
▁존재	-1505
▁빈	-1506
▁빌	-1507
▁그녀	-1508
▁높은	-1509
▁돋보	-1510
▁예쁘	-1511
나오는	-1512
▁더럽게	-1513
▁재밌었다	-1514
▁나와서	-1515
▁마음에	-1516
▁봤지만	-1517
▁했는데	-1518
▁90	-1519
▁사람들	-1520
▁한마디로	-1521
▁만점	-1522
▁빨리	-1523
▁잘못	-1524
▁평가	-1525
▁홍콩	-1526
음악	-1527
할때	-1528
▁이미	-1529
▁평범	-1530
▁잘만들	-1531
▁ᄃᄃ	-1532
▁가치	-1533
▁다들	-1534
▁만드	-1535
▁전설	-1536
▁좋음	-1537
고싶다	-1538
ᅲᅲᅲᅲ	-1539
in	-1540
▁겁	-1541
들아	-1542
없네	-1543
에겐	-1544
▁!!	-1545
▁어쩌	-1546
▁따뜻한	-1547
▁(	-1548
거같	-1549
러운	-1550
▁전편	-1551
▁좋겠	-1552
보다는	-1553
으면서	-1554
이라니	-1555
▁그대로	-1556
▁항	-1557
▁향	-1558
말고	-1559
ood	-1560
▁개그	-1561
▁스타일	-1562
명작	-1563
자가	-1564
▁다르	-1565
▁있을	-1566
▁필	-1567
진진	-1568
▁로맨틱	-1569
▁원작을	-1570
▁딸	-1571
▁맥	-1572
봐야	-1573
▁끝나	-1574
▁세계	-1575
▁크리스	-1576
추천	-1577
▁거의	-1578
▁보니	-1579
▁예고	-1580
▁굉장히	-1581
하긴	-1582
▁낫다	-1583
▁대해	-1584
▁된다	-1585
▁새로운	-1586
저히	-1587
짜증	-1588
▁나의	-1589
▁병맛	-1590
▁비해	-1591
▁재미없어	-1592
▁꺼	-1593
아야	-1594
우드	-1595
▁그닥	-1596
▁황당	-1597
▁대단한	-1598
▁빛	-1599
애니	-1600
▁관람	-1601
▁코메디	-1602
▁감성	-1603
▁예상	-1604
지마라	-1605
▁착	-1606
들만	-1607
▁탄탄	-1608
▁극장판	-1609
▁쓸	-1610
▁틀	-1611
스의	-1612
▁여전	-1613
▁흥행	-1614
▁밀	-1615
▁벗	-1616
▁잃	-1617
아닌	-1618
▁것을	-1619
▁웃겨	-1620
▁자연	-1621
▁헐리	-1622
▁혼자	-1623
▁평점에	-1624
일까	-1625
▁웃긴	-1626
▁판타지	-1627
▁짝	-1628
최고의	-1629
▁권	-1630
▁장면이	-1631
네여	-1632
여서	-1633
▁등장	-1634
▁확실	-1635
▁감독님	-1636
▁내인생	-1637
▁어렸을때	-1638
▁있어	-1639
▁한심	-1640
,,,,	-1641
▁재밌어	-1642
점준	-1643
▁미안	-1644
▁어울	-1645
▁훌륭한	-1646
▁처음부터	-1647
▁뮤	-1648
▁별루	-1649
▁어쩔	-1650
▁제가	-1651
재밌게	-1652
ᄏᄏᄏᄏᄏ	-1653
이하	-1654
▁상영	-1655
었지만	-1656
▁엄청난	-1657
.5	-1658
▁a	-1659
▁핵	-1660
▁것도	-1661
▁그림	-1662
▁리얼	-1663
▁흥미진진	-1664
▁재밌었어요	-1665
대의	-1666
저씨	-1667
조건	-1668
하하	-1669
▁사회	-1670
▁의도	-1671
보세요	-1672
▁m	-1673
수있	-1674
은데	-1675
메이크	-1676
정도로	-1677
▁좋았어요	-1678
▁맨	-1679
▁묘	-1680
▁먹먹	-1681
▁저질	-1682
▁지루하지	-1683
났다	-1684
속에	-1685
실망	-1686
이코	-1687
▁tv	-1688
▁누구	-1689
▁그러나	-1690
▁생각해	-1691
▁평론가	-1692
▁재미있고	-1693
▁운	-1694
ᅲᅲᅲ	-1695
▁80	-1696
사회	-1697
▁나이	-1698
▁바보	-1699
▁화면	-1700
▁있었다	-1701
▁지루해	-1702
▁이영화는	-1703
▁가볍	-1704
▁대작	-1705
▁만족	-1706
▁여주	-1707
▁같은데	-1708
▁분위기	-1709
거다	-1710
리의	-1711
효과	-1712
▁참신	-1713
립니다	-1714
▁충분히	-1715
▁사람들이	-1716
▁섬	-1717
댓글	-1718
봐라	-1719
아도	-1720
중간	-1721
▁망작	-1722
▁불편	-1723
▁진실	-1724
▁까	-1725
▁아오	-1726
▁항상	-1727
▁그런지	-1728
도록	-1729
이냐	-1730
▁더욱	-1731
▁영웅	-1732
겠지만	-1733
▁액션도	-1734
▁자체가	-1735
되고	-1736
▁끝내	-1737
▁못하는	-1738
▁씨	-1739
▁짧	-1740
그러	-1741
프다	-1742
▁어려	-1743
▁유머	-1744
점준다	-1745
▁감동적	-1746
................	-1747
리다	-1748
어나	-1749
▁상황	-1750
▁영원	-1751
▁저런	-1752
▁힘든	-1753
때마다	-1754
▁돈주고	-1755
▁d	-1756
▁골	-1757
▁왔	-1758
▁페	-1759
겠네	-1760
공포	-1761
내가	-1762
는줄	-1763
▁몰랐	-1764
▁잊혀	-1765
▁아이들이	-1766
▁루	-1767
▁헤	-1768
▁나만	-1769
▁동화	-1770
▁이연	-1771
▁하게	-1772
▁학교	-1773
▁환상	-1774
▁ᄒᄒᄒ	-1775
▁완벽한	-1776
▁유치한	-1777
▁듣	-1778
근데	-1779
▁불륜	-1780
▁재미없고	-1781
▁놈	-1782
▁능	-1783
일이	-1784
파이	-1785
▁시절	-1786
▁자극	-1787
▁저는	-1788
▁한편	-1789
▁무조건	-1790
▁이런게	-1791
▁묻	-1792
▁쳐	-1793
어가	-1794
지를	-1795
~^^	-1796
▁질질	-1797
▁봤네요	-1798
▁안된다	-1799
▁전형적인	-1800
▁깔	-1801
▁성우	-1802
에서도	-1803
▁사람은	-1804
▁왜이리	-1805
▁화이팅	-1806
▁리메이크	-1807
▁직	-1808
았음	-1809
처음	-1810
하니	-1811
▁돈이	-1812
▁우울	-1813
▁적당	-1814
보면서	-1815
▁매력적인	-1816
▁써	-1817
▁당신	-1818
▁머리	-1819
▁졸라	-1820
▁즐겁	-1821
▁감독은	-1822
▁알았다	-1823
▁없어서	-1824
▁젊	-1825
남자	-1826
스런	-1827
▁인물	-1828
영화로	-1829
▁금	-1830
리티	-1831
▁해도	-1832
그리고	-1833
▁예전에	-1834
▁입니다	-1835
▁정도로	-1836
▁대단하다	-1837
▁놓	-1838
분들	-1839
에선	-1840
웠던	-1841
▁수가	-1842
▁점점	-1843
을텐데	-1844
▁좋겠다	-1845
던가	-1846
민국	-1847
웃음	-1848
유의	-1849
쩐다	-1850
현실	-1851
안하고	-1852
▁도저히	-1853
▁줄거리	-1854
▁지금까지	-1855
▁ᄏᄏᄏᄏᄏ	-1856
▁ᅮ	-1857
▁해서	-1858
▁겨	-1859
▁줘	-1860
▁찌	-1861
강추	-1862
이었	-1863
좋다	-1864
▁나쁜	-1865
▁짱짱	-1866
▁천재	-1867
▁귀여운	-1868
▁이런거	-1869
▁이래	-1870
▁이리	-1871
▁그래픽	-1872
▁유쾌한	-1873
▁명작이다	-1874
▁쉽	-1875
▁혹	-1876
당시	-1877
반전	-1878
▁살인	-1879
▁희망	-1880
봤어요	-1881
▁최악이다	-1882
평가	-1883
▁괜히	-1884
▁초등	-1885
▁허술	-1886
스럽고	-1887
▁만들지	-1888
▁사랑을	-1889
▁아쉬운	-1890
▁이런걸	-1891
▁있지만	-1892
▁깜	-1893
리게	-1894
▁멍청	-1895
▁부분	-1896
▁자꾸	-1897
▁지금봐도	-1898
▁SF	-1899
▁청춘	-1900
지금	-1901
▁중에	-1902
어지는	-1903
하지도	-1904
▁보는데	-1905
▁평점은	-1906
였습니다	-1907
▁감동적이고	-1908
님의	-1909
▁놀라	-1910
▁못보	-1911
▁사라	-1912
▁성장	-1913
▁이따	-1914
▁진지	-1915
▁안타까	-1916
▁영화인	-1917
▁좋았음	-1918
시대	-1919
▁엉망	-1920
▁잘만든	-1921
ST	-1922
개봉	-1923
▁실제	-1924
▁201	-1925
▁유치하고	-1926
▁급	-1927
▁덕	-1928
▁됐	-1929
있게	-1930
▁;;	-1931
▁순간	-1932
▁모르고	-1933
▁시청률	-1934
▁없네요	-1935
▁쩔	-1936
무리	-1937
이트	-1938
▁감상	-1939
▁댓글	-1940
▁견	-1941
▁창	-1942
년에	-1943
님이	-1944
사가	-1945
영상	-1946
조차	-1947
▁범죄	-1948
▁소리	-1949
▁일단	-1950
▁저도	-1951
▁전작	-1952
▁죽음	-1953
▁있어서	-1954
▁찬	-1955
기억	-1956
많이	-1957
▁ᄉᄇ	-1958
▁기대하고	-1959
▁시간낭비	-1960
가요	-1961
리아	-1962
연출	-1963
▁선택	-1964
▁싫어	-1965
▁연출력	-1966
▁오글거	-1967
▁지금도	-1968
▁ᄏᄏᄏᄏᄏᄏᄏᄏᄏᄏᄏᄏ	-1969
오는	-1970
치게	-1971
▁아놔	-1972
▁이번	-1973
▁ost	-1974
▁배우가	-1975
▁추억의	-1976
▁말이필요	-1977
//	-1978
드가	-1979
어라	-1980
역시	-1981
좋고	-1982
▁밑에	-1983
▁최근	-1984
이에요	-1985
▁갑자기	-1986
▁보여주	-1987
▁부족한	-1988
▁아까워	-1989
▁케이블	-1990
있네	-1991
▁해피	-1992
▁반전이	-1993
▁소재는	-1994
▁우연히	-1995
▁아름답다	-1996
▁재미있음	-1997
▁주인공이	-1998
▁D	-1999
다운	-2000
ᄒᄒᄒ	-2001
▁굿굿	-2002
▁내생	-2003
▁잘봤습니다	-2004
.2	-2005
▁검	-2006
랄까	-2007
한게	-2008
▁독립	-2009
▁어렵	-2010
▁왠지	-2011
▁카메	-2012
았는데	-2013
▁잼있게	-2014
▁대한민국	-2015
▁영화였습니다	-2016
▁샤	-2017
막장	-2018
스릴	-2019
▁가는	-2020
▁신기	-2021
▁무서운	-2022
▁완성도	-2023
재미없다	-2024
했습니다	-2025
▁처음으로	-2026
▁젤	-2027
▁짐	-2028
가고	-2029
극장	-2030
저럭	-2031
지못	-2032
▁게임	-2033
▁소중	-2034
▁안보	-2035
▁있음	-2036
였어요	-2037
하고싶	-2038
▁전개가	-2039
▁아무것도	-2040
▁촌	-2041
그라	-2042
내요	-2043
▁가능	-2044
▁미화	-2045
▁한계	-2046
에서는	-2047
▁별로다	-2048
!!!!!	-2049
아라	-2050
알바	-2051
▁나쁘	-2052
▁실패	-2053
▁중요	-2054
▁영화냐	-2055
▁이상한	-2056
▁화려한	-2057
번째	-2058
어로	-2059
었고	-2060
지게	-2061
▁글쎄	-2062
▁참고	-2063
였는데	-2064
▁짜증나	-2065
▁허접한	-2066
▁힐	-2067
거냐	-2068
내는	-2069
눈물	-2070
만이	-2071
명이	-2072
▁것은	-2073
▁그럴	-2074
▁나를	-2075
▁다행	-2076
▁없을	-2077
▁잘생	-2078
▁전기	-2079
안되는	-2080
었으면	-2081
점짜리	-2082
▁느끼게	-2083
▁재밌습니다	-2084
▁갔	-2085
거나	-2086
움이	-2087
▁돌려	-2088
▁아닐	-2089
▁가지고	-2090
▁나온다	-2091
▁슬프다	-2092
▁이연걸	-2093
▁만들었다	-2094
▁영화중에	-2095
▁왜이렇게	-2096
▁재밌었음	-2097
▁북	-2098
새끼	-2099
▁낭비	-2100
재밌어요	-2101
▁재미없네	-2102
▁좋았는데	-2103
▁쓴	-2104
다지	-2105
발이	-2106
예산	-2107
▁만큼	-2108
▁얘기	-2109
럭저럭	-2110
▁개연성	-2111
--	-2112
겟다	-2113
럽다	-2114
무서	-2115
..?	-2116
▁그랬	-2117
▁속편	-2118
▁안나	-2119
▁하면	-2120
▁것이다	-2121
▁재밋게	-2122
하면서도	-2123
▁A	-2124
▁회	-2125
만화	-2126
쵝오	-2127
▁원래	-2128
나온다	-2129
보다가	-2130
▁목소리	-2131
▁애들이	-2132
▁류	-2133
아먹	-2134
어울	-2135
▁그때	-2136
▁듯한	-2137
▁바람	-2138
▁알려	-2139
는영화	-2140
영화에	-2141
좋아요	-2142
▁아버지	-2143
▁재밌었는데	-2144
기엔	-2145
봤음	-2146
않고	-2147
유치	-2148
점주	-2149
촬영	-2150
▁12	-2151
▁안나오	-2152
▁+	-2153
▁G	-2154
▁늙	-2155
▁뜨	-2156
나면	-2157
로는	-2158
식이	-2159
함과	-2160
▁섹시	-2161
▁스케	-2162
▁전문	-2163
만으로	-2164
점주는	-2165
▁보여준	-2166
▁어린이	-2167
▁합니다	-2168
▁필요없는	-2169
▁:	-2170
았던	-2171
오빠	-2172
▁가득	-2173
▁거지	-2174
▁바라	-2175
▁심심	-2176
도없고	-2177
▁인간의	-2178
▁알았는데	-2179
▁이영화가	-2180
것은	-2181
만의	-2182
비가	-2183
세가	-2184
한듯	-2185
▁시걸	-2186
▁안맞	-2187
▁의외	-2188
것같다	-2189
▁나에게	-2190
▁다운받	-2191
▁어릴적	-2192
▁있다는	-2193
▁잤	-2194
기고	-2195
분에	-2196
와르	-2197
인간	-2198
▁깊은	-2199
▁눈이	-2200
▁분명	-2201
▁않음	-2202
▁편집	-2203
것이다	-2204
수있는	-2205
▁독특한	-2206
▁봐야할	-2207
▁앞으로	-2208
▁여전히	-2209
▁연출이	-2210
▁그럭저럭	-2211
▁어이없는	-2212
▁좋았습니다	-2213
or	-2214
▁법	-2215
심을	-2216
었네	-2217
일뿐	-2218
▁이러	-2219
▁자기	-2220
▁액션이	-2221
▁예고편	-2222
▁있는데	-2223
▁느껴지는	-2224
▁멀	-2225
▁팔	-2226
▁플	-2227
는가	-2228
였던	-2229
절한	-2230
▁그의	-2231
▁성공	-2232
▁않을	-2233
▁이하	-2234
만드는	-2235
평점이	-2236
▁멋지다	-2237
▁억지로	-2238
▁진부한	-2239
▁보고나서	-2240
▁사람들은	-2241
▁필요없다	-2242
▁보지마세요	-2243
he	-2244
상을	-2245
이해	-2246
있음	-2247
▁겁나	-2248
▁결혼	-2249
▁그게	-2250
▁눈을	-2251
▁복수	-2252
▁시도	-2253
▁인정	-2254
하기만	-2255
▁귀엽고	-2256
▁인상깊	-2257
▁보고싶다	-2258
▁아름답고	-2259
▁감사합니다	-2260
▁전체적으로	-2261
▁춤	-2262
▁퍼	-2263
마음	-2264
소한	-2265
인물	-2266
▁15	-2267
▁뭔지	-2268
▁아빠	-2269
▁재밌네	-2270
▁스토리에	-2271
▁엑	-2272
걸까	-2273
구려	-2274
아깝	-2275
아주	-2276
었어	-2277
▁그려	-2278
▁이젠	-2279
같은데	-2280
있어요	-2281
▁너무나도	-2282
▁영화지만	-2283
▁면	-2284
▁응	-2285
래기	-2286
스를	-2287
시는	-2288
▁가끔	-2289
▁말고	-2290
▁오락	-2291
▁자유	-2292
▁해야	-2293
그래도	-2294
시간이	-2295
은영화	-2296
해주는	-2297
▁남는다	-2298
▁음악이	-2299
▁재미있었다	-2300
▁승	-2301
대사	-2302
스는	-2303
심이	-2304
우는	-2305
했고	-2306
▁예쁜	-2307
▁취향	-2308
▁호러	-2309
▁보는게	-2310
▁보시길	-2311
▁볼만함	-2312
▁않았다	-2313
▁액션은	-2314
▁해주는	-2315
▁후반부	-2316
▁이야기를	-2317
▁처음이다	-2318
▁재미있네요	-2319
▁월	-2320
프로	-2321
▁노력	-2322
▁비추	-2323
▁싫다	-2324
▁어찌	-2325
▁유일	-2326
만하면	-2327
재미없	-2328
했으면	-2329
▁이정도면	-2330
ou	-2331
▁십	-2332
▁워	-2333
내고	-2334
니아	-2335
리에	-2336
서야	-2337
즈니	-2338
펑펑	-2339
▁중반	-2340
▁흘러	-2341
▁매력이	-2342
르노	-2343
무섭	-2344
인거	-2345
지컬	-2346
프고	-2347
▁몸매	-2348
▁시원	-2349
▁영환	-2350
▁유명	-2351
하지마	-2352
▁볼만하다	-2353
▁뒷	-2354
▁탈	-2355
그램	-2356
소재	-2357
▁난해	-2358
▁러브	-2359
▁스티	-2360
▁마음을	-2361
▁모르는	-2362
▁어렸을	-2363
▁역시나	-2364
▁증	-2365
이제	-2366
▁난다	-2367
▁무협	-2368
▁미치	-2369
▁전달	-2370
▁평생	-2371
▁기대를	-2372
▁I	-2373
이의	-2374
트콤	-2375
▁같음	-2376
▁고전	-2377
▁나머	-2378
▁다소	-2379
▁없나	-2380
▁이때	-2381
▁진행	-2382
아까워	-2383
▁그다지	-2384
▁영화이다	-2385
▁추천합니다	-2386
▁씁	-2387
만점	-2388
모습	-2389
이면	-2390
자는	-2391
▁깔끔	-2392
▁마라	-2393
▁메세	-2394
▁미소	-2395
▁본다	-2396
▁블랙	-2397
▁쵝오	-2398
됩니다	-2399
재밌음	-2400
▁그런가	-2401
▁상상력	-2402
▁아저씨	-2403
▁흥미롭	-2404
▁아니지만	-2405
▁이야기가	-2406
▁ᄋ	-2407
▁ᄌ	-2408
▁뜬	-2409
나올	-2410
른다	-2411
었지	-2412
할듯	-2413
▁남아	-2414
▁노출	-2415
▁아마	-2416
▁해준	-2417
▁그렇고	-2418
▁했지만	-2419
▁액션영화	-2420
▁사랑스러운	-2421
▁^	-2422
겼다	-2423
마저	-2424
인을	-2425
▁그립	-2426
▁무지	-2427
▁산만	-2428
▁아나	-2429
년전에	-2430
보는데	-2431
재밌다	-2432
▁영화보고	-2433
an	-2434
▁친	-2435
▁합	-2436
겹다	-2437
되어	-2438
무비	-2439
세계	-2440
아아	-2441
터리	-2442
화가	-2443
▁드는	-2444
▁비극	-2445
▁슈퍼	-2446
▁조잡	-2447
▁특별	-2448
▁OST	-2449
▁가볍게	-2450
▁말하고	-2451
▁필요한	-2452
▁지루해서	-2453
▁짜증나는	-2454
?!	-2455
▁웬	-2456
▁쩌	-2457
으며	-2458
져요	-2459
하려	-2460
하여	-2461
▁감탄	-2462
▁풀어	-2463
▁후속	-2464
▁보기엔	-2465
▁슬프고	-2466
▁저예산	-2467
▁잔잔하고	-2468
▁w	-2469
로서	-2470
밋밋	-2471
소년	-2472
자의	-2473
▁cg	-2474
▁미스	-2475
사람들	-2476
하다고	-2477
▁몇번을	-2478
▁순수한	-2479
▁재미를	-2480
▁할말이	-2481
▁봤었는데	-2482
▁축	-2483
놓은	-2484
었나	-2485
▁방송	-2486
▁여성	-2487
▁용서	-2488
배우들	-2489
었네요	-2490
한다면	-2491
▁연기력이	-2492
▁닥	-2493
▁짠	-2494
▁풋	-2495
▁되어	-2496
▁예전	-2497
▁이뻐	-2498
▁이어	-2499
▁조폭	-2500
버렸다	-2501
지않는	-2502
▁아닌가	-2503
▁이건뭐	-2504
▁정말로	-2505
▁good	-2506
▁생각나는	-2507
▁농	-2508
과는	-2509
무슨	-2510
으론	-2511
있어	-2512
줄알	-2513
▁먼저	-2514
▁사기	-2515
▁아련	-2516
▁정치	-2517
▁표절	-2518
▁현재	-2519
아까움	-2520
▁소름돋	-2521
▁티비에서	-2522
▁끼	-2523
▁돼	-2524
▁뭉	-2525
기의	-2526
안되	-2527
하겠	-2528
▁느꼈	-2529
▁메시	-2530
▁사극	-2531
▁스포	-2532
▁슬픔	-2533
▁오랫	-2534
▁촬영	-2535
▁같네요	-2536
▁기분이	-2537
▁사랑이	-2538
▁소름끼	-2539
▁좋았던	-2540
▁특유의	-2541
▁평범한	-2542
▁징	-2543
감을	-2544
더만	-2545
말로	-2546
인은	-2547
다는게	-2548
아까운	-2549
연기가	-2550
하는거	-2551
하세요	-2552
▁디즈니	-2553
▁시사회	-2554
▁연기에	-2555
.1	-2556
가족	-2557
겨운	-2558
많은	-2559
방송	-2560
왜이	-2561
▁라이	-2562
▁레이	-2563
▁삶을	-2564
▁생애	-2565
▁아는	-2566
지네요	-2567
▁신선한	-2568
▁어색한	-2569
▁작품성	-2570
.4	-2571
▁겉	-2572
▁덜	-2573
▁딴	-2574
▁찡	-2575
나가	-2576
▁과거	-2577
▁미래	-2578
▁부모	-2579
▁지난	-2580
본영화	-2581
▁뮤지컬	-2582
▁아닌듯	-2583
▁여자가	-2584
봤습니다	-2585
▁ᄏᄏᄏᄏᄏᄏᄏᄏ	-2586
▁i	-2587
▁밤	-2588
▁썩	-2589
▁학	-2590
나이	-2591
디어	-2592
보이	-2593
순간	-2594
▁ᄋᄋ	-2595
▁감명	-2596
▁강렬	-2597
▁니콜	-2598
▁동물	-2599
▁모자	-2600
▁올해	-2601
▁우와	-2602
▁찍은	-2603
하는게	-2604
하는지	-2605
▁다큐멘	-2606
▁드럽게	-2607
▁모습이	-2608
▁시트콤	-2609
▁드라마가	-2610
▁좋습니다	-2611
▁쇼	-2612
▁톰	-2613
괜찮	-2614
보여	-2615
티비	-2616
▁살짝	-2617
▁섹스	-2618
▁시선	-2619
▁했던	-2620
봅니다	-2621
아니고	-2622
▁끝나고	-2623
▁어이가	-2624
▁인생의	-2625
▁확실히	-2626
▁시간가는	-2627
가가	-2628
계의	-2629
라스	-2630
하라	-2631
▁그린	-2632
▁놀랍	-2633
▁밋밋	-2634
▁부끄	-2635
▁할말	-2636
고싶은	-2637
더군요	-2638
▁봤다가	-2639
▁싸이코	-2640
▁옛날에	-2641
▁오그라	-2642
▁이유가	-2643
▁드라마를	-2644
▁일본영화	-2645
▁해피엔딩	-2646
▁짓	-2647
▁폐	-2648
나왔	-2649
따라	-2650
불가	-2651
아님	-2652
오글	-2653
이터	-2654
히는	-2655
▁볼게	-2656
▁사이	-2657
▁은근	-2658
▁철학	-2659
면서도	-2660
았어요	-2661
▁세상에	-2662
▁소재를	-2663
▁있었던	-2664
▁재밋다	-2665
,2	-2666
▁격	-2667
대가	-2668
성애	-2669
이션	-2670
▁그지	-2671
▁대충	-2672
▁되게	-2673
▁시시	-2674
▁이쁜	-2675
▁쩐다	-2676
▁힐링	-2677
퀄리티	-2678
▁감동과	-2679
▁그들의	-2680
▁볼수록	-2681
▁나왔으면	-2682
▁기대안하고	-2683
▁꾸	-2684
시켜	-2685
하던	-2686
해주	-2687
▁결론	-2688
▁귀신	-2689
▁새벽	-2690
▁알겠	-2691
▁압권	-2692
▁정서	-2693
▁하하	-2694
영화도	-2695
지않은	-2696
▁언제나	-2697
▁이거보고	-2698
▁재미있었어요	-2699
?)	-2700
▁엘	-2701
시아	-2702
자를	-2703
장이	-2704
제목	-2705
줌마	-2706
▁누군	-2707
▁설명	-2708
▁소장	-2709
▁왜케	-2710
▁잊을	-2711
▁짝퉁	-2712
봣는데	-2713
▁더이상	-2714
▁싸구려	-2715
▁안하고	-2716
▁좋았고	-2717
▁하네요	-2718
▁재미없어요	-2719
▁꽝	-2720
▁윌	-2721
▁접	-2722
리도	-2723
친다	-2724
하구	-2725
했네	-2726
▁나라	-2727
▁와우	-2728
▁외국	-2729
▁요소	-2730
▁젊은	-2731
스럽게	-2732
▁ᅲᅲᅲ	-2733
▁비슷한	-2734
▁아닌데	-2735
▁아이들	-2736
▁음악도	-2737
▁작품이	-2738
영화라고	-2739
▁볼때마다	-2740
▁얻	-2741
기다	-2742
할까	-2743
▁극치	-2744
▁방금	-2745
▁보시	-2746
▁안됨	-2747
▁연애	-2748
▁웃김	-2749
▁있나	-2750
▁해주	-2751
▁느와르	-2752
▁엉성한	-2753
▁웃기고	-2754
▁제목이	-2755
▁무섭지도	-2756
▁영화에요	-2757
▁<	-2758
끼리	-2759
히려	-2760
▁00	-2761
▁넘어	-2762
▁높다	-2763
▁맞는	-2764
▁무비	-2765
▁보러	-2766
▁심각	-2767
▁펑펑	-2768
보는게	-2769
▁!!!	-2770
▁사랑과	-2771
▁쓰래기	-2772
▁만들어진	-2773
▁보고싶은	-2774
▁쓰레기다	-2775
▁영화에서	-2776
같음	-2777
레스	-2778
성치	-2779
여운	-2780
▁괴물	-2781
▁심리	-2782
▁와닿	-2783
사람이	-2784
없어서	-2785
하지않	-2786
▁마이너	-2787
▁반전도	-2788
▁아니면	-2789
▁있다면	-2790
▁생각없이	-2791
▁진심으로	-2792
▁꼴	-2793
▁끔	-2794
▁넣	-2795
것들	-2796
결말	-2797
사는	-2798
우기	-2799
젠장	-2800
중의	-2801
지말	-2802
한건	-2803
한국	-2804
▁건지	-2805
▁뒤로	-2806
▁미드	-2807
▁스트	-2808
▁오버	-2809
▁한데	-2810
▁형편	-2811
▁화가	-2812
버리고	-2813
아니다	-2814
▁그런데	-2815
▁베스트	-2816
▁떨어지는	-2817
▁유치하다	-2818
▁곳	-2819
그인	-2820
르고	-2821
마스	-2822
보자	-2823
의미	-2824
자들	-2825
정을	-2826
주얼	-2827
트가	-2828
▁고생	-2829
▁나서	-2830
▁눈빛	-2831
▁뜬금	-2832
▁씁쓸	-2833
▁아류	-2834
▁코난	-2835
스러움	-2836
▁뛰어난	-2837
▁부분이	-2838
▁소재가	-2839
았습니다	-2840
▁아름다움	-2841
▁따뜻해지는	-2842
.........	-2843
bb	-2844
▁몽	-2845
▁잭	-2846
▁헛	-2847
로도	-2848
심히	-2849
이자	-2850
편도	-2851
▁경찰	-2852
▁남주	-2853
▁단연	-2854
▁레전	-2855
▁어제	-2856
▁종교	-2857
▁풋풋	-2858
영화임	-2859
편보다	-2860
하기도	-2861
▁반개도	-2862
▁본영화	-2863
▁스케일	-2864
▁아닐까	-2865
▁현실을	-2866
▁ᄀ	-2867
▁붙	-2868
▁콩	-2869
류의	-2870
버렸	-2871
원이	-2872
위해	-2873
이유	-2874
자단	-2875
▁느낀	-2876
▁제이	-2877
▁하루	-2878
연기도	-2879
▁나중에	-2880
▁마무리	-2881
▁끊	-2882
▁논	-2883
▁침	-2884
거운	-2885
까진	-2886
나네	-2887
나다	-2888
▁가서	-2889
▁그럼	-2890
▁든다	-2891
▁서로	-2892
▁소녀	-2893
▁하이	-2894
닝타임	-2895
스릴러	-2896
이라서	-2897
있는데	-2898
▁그렇다	-2899
▁수준이	-2900
▁재미잇	-2901
▁헐리웃	-2902
▁지루했다	-2903
▁푹	-2904
봤던	-2905
스로	-2906
진심	-2907
▁개판	-2908
▁과연	-2909
▁다가	-2910
▁삶의	-2911
▁싶어	-2912
▁않아	-2913
▁이기	-2914
▁일상	-2915
나와서	-2916
▁끝나는	-2917
▁울었다	-2918
▁처음엔	-2919
▁스토리와	-2920
▁늦	-2921
▁쫌	-2922
▁쿠	-2923
▁흡	-2924
나옴	-2925
명의	-2926
웠음	-2927
정신	-2928
▁벌써	-2929
▁볼거	-2930
▁슬퍼	-2931
▁슬펐	-2932
▁에휴	-2933
▁재난	-2934
▁죽여	-2935
급영화	-2936
내용도	-2937
▁보이는	-2938
▁알바들	-2939
▁인생을	-2940
▁장면은	-2941
▁즐겁게	-2942
▁스토리를	-2943
▁안타깝다	-2944
▁유쾌하고	-2945
▁이런영화가	-2946
▁f	-2947
▁녹	-2948
▁쉬	-2949
▁익	-2950
▁폴	-2951
아가	-2952
이를	-2953
이후	-2954
장난	-2955
지의	-2956
찝찝	-2957
▁남을	-2958
▁노답	-2959
▁두고	-2960
▁보길	-2961
▁사는	-2962
▁생생	-2963
▁전에	-2964
▁평이	-2965
▁마세요	-2966
▁사랑에	-2967
▁여기서	-2968
▁이제야	-2969
▁드라마는	-2970
▁영화라는	-2971
ll	-2972
▁꼽	-2973
▁싱	-2974
려다	-2975
수도	-2976
었을	-2977
▁관계	-2978
▁라는	-2979
▁명품	-2980
▁보자	-2981
▁태어	-2982
▁폭력	-2983
▁피해	-2984
수없는	-2985
...?	-2986
▁배우의	-2987
▁봤으면	-2988
▁왜이래	-2989
▁유치함	-2990
▁청소년	-2991
▁탄탄한	-2992
re	-2993
▁밝	-2994
▁쥐	-2995
가슴	-2996
버트	-2997
편을	-2998
했을	-2999
ing	-3000
▁거짓	-3001
▁나가	-3002
▁설레	-3003
▁성인	-3004
▁007	-3005
▁되었다	-3006
▁마이클	-3007
▁위대한	-3008
▁이쁘다	-3009
▁좋아할	-3010
▁주성치	-3011
▁전기세가	-3012
▁뉴	-3013
대는	-3014
리기	-3015
만드	-3016
▁나옴	-3017
▁나은	-3018
▁높아	-3019
▁대표	-3020
▁발로	-3021
▁선생	-3022
▁연예	-3023
▁이루	-3024
▁일어	-3025
▁죄다	-3026
▁포장	-3027
인가요	-3028
장면이	-3029
하다니	-3030
▁모습을	-3031
▁사람을	-3032
▁의외로	-3033
▁죽는줄	-3034
▁즐거운	-3035
▁아직까지	-3036
▁프로그램	-3037
BS	-3038
▁줬	-3039
란다	-3040
려면	-3041
쳤다	-3042
쾌한	-3043
표현	-3044
▁70	-3045
▁까지	-3046
▁레알	-3047
▁마치	-3048
▁있지	-3049
▁현대	-3050
점이다	-3051
하더라	-3052
▁로그인	-3053
▁멋있다	-3054
▁시대를	-3055
▁연기와	-3056
▁오히려	-3057
▁있네요	-3058
▁있어요	-3059
▁재밌던데	-3060
▁앤	-3061
▁잇	-3062
▁흉	-3063
던지	-3064
리네	-3065
영환	-3066
온다	-3067
져서	-3068
▁막판	-3069
▁무시	-3070
▁믿을	-3071
▁살다	-3072
▁조연	-3073
▁좋을	-3074
▁포기	-3075
사람은	-3076
에서의	-3077
▁음악과	-3078
▁포르노	-3079
▁웃기지도	-3080
▁헐리우드	-3081
▁밥	-3082
▁쪽	-3083
로우	-3084
사를	-3085
수는	-3086
▁40	-3087
▁말로	-3088
▁말을	-3089
▁뭉클	-3090
▁사건	-3091
▁내용을	-3092
▁눈물을	-3093
▁시간을	-3094
▁아깝지	-3095
▁없지만	-3096
▁카메라	-3097
▁괜찮은데	-3098
▁신선하고	-3099
~~~~~~~~	-3100
on	-3101
▁뇌	-3102
▁퇴	-3103
▁푸	-3104
▁활	-3105
계속	-3106
드의	-3107
어여	-3108
작가	-3109
해진	-3110
▁11	-3111
▁내려	-3112
▁동생	-3113
▁말할	-3114
▁알아	-3115
▁어휴	-3116
▁연속	-3117
▁존경	-3118
▁채널	-3119
▁최강	-3120
▁견자단	-3121
▁공감이	-3122
▁낮아서	-3123
▁레전드	-3124
▁모든게	-3125
▁무섭다	-3126
▁무엇을	-3127
▁뻔하고	-3128
▁소재로	-3129
보고싶다	-3130
▁무엇보다	-3131
▁부족하다	-3132
▁하나하나	-3133
▁학교에서	-3134
▁현실적인	-3135
기분	-3136
봐요	-3137
어진	-3138
▁고민	-3139
▁깊이	-3140
▁끝난	-3141
▁스크	-3142
▁악역	-3143
▁영국	-3144
▁올라	-3145
▁특수	-3146
봤지만	-3147
이영화	-3148
▁몰입이	-3149
▁산으로	-3150
▁퀄리티	-3151
▁힘들다	-3152
▁좌	-3153
▁쩝	-3154
▁캬	-3155
거임	-3156
그렇	-3157
들에	-3158
와서	-3159
편의	-3160
해준	-3161
▁광고	-3162
▁굳이	-3163
▁기본	-3164
▁무언	-3165
▁신파	-3166
▁안돼	-3167
▁인내	-3168
▁자막	-3169
▁타임	-3170
▁감동의	-3171
▁어려운	-3172
▁이쁘고	-3173
▁점수가	-3174
▁같습니다	-3175
▁다시한번	-3176
▁잊혀지지	-3177
▁중간중간	-3178
▁쓰레기같은	-3179
구니	-3180
사의	-3181
상이	-3182
아직	-3183
▁민망	-3184
▁섬세	-3185
▁에이	-3186
▁전투	-3187
▁조용	-3188
▁찝찝	-3189
▁필름	-3190
리스마	-3191
▁몰입감	-3192
▁못하고	-3193
▁봣는데	-3194
▁이따위	-3195
▁이유는	-3196
▁점수를	-3197
▁ᅲᅲᅲᅲ	-3198
▁긴장감도	-3199
▁영화였어요	-3200
▁최고입니다	-3201
▁한국영화는	-3202
▁씬	-3203
▁줌	-3204
▁체	-3205
가능	-3206
가락	-3207
도가	-3208
시에	-3209
엇다	-3210
좋음	-3211
(?)	-3212
▁둘다	-3213
▁특이	-3214
하겠다	-3215
..^^	-3216
▁단순한	-3217
▁사랑은	-3218
▁색다른	-3219
▁어머니	-3220
▁역대급	-3221
▁웃음이	-3222
▁흥미로운	-3223
▁시간가는줄	-3224
ov	-3225
▁탁	-3226
나도	-3227
남는	-3228
먹고	-3229
성의	-3230
에만	-3231
이크	-3232
▁기발	-3233
▁김기	-3234
▁망쳐	-3235
▁부터	-3236
▁빌려	-3237
▁나오고	-3238
▁빠져들	-3239
▁빼고는	-3240
▁안타깝	-3241
▁제작비	-3242
▁출연진	-3243
▁주인공의	-3244
▁명작입니다	-3245
▁낳	-3246
겠음	-3247
답답	-3248
되지	-3249
볼만	-3250
부족	-3251
시고	-3252
시킨	-3253
특히	-3254
▁리뷰	-3255
▁물론	-3256
▁미모	-3257
▁보긴	-3258
▁예뻐	-3259
▁있게	-3260
▁흔한	-3261
영화라	-3262
이렇게	-3263
캐스팅	-3264
하던데	-3265
▁못했다	-3266
▁보니까	-3267
▁제작진	-3268
▁좋지만	-3269
▁핵노잼	-3270
하는영화	-3271
▁있습니다	-3272
▁기대했는데	-3273
▁ᄏᄏᄏᄏᄏᄏ	-3274
..........	-3275
at	-3276
▁[	-3277
▁칼	-3278
안에	-3279
와는	-3280
▁13	-3281
▁18	-3282
▁50	-3283
▁남녀	-3284
▁변태	-3285
▁울고	-3286
▁잼잇	-3287
▁좀더	-3288
끝까지	-3289
더라면	-3290
용으로	-3291
한다는	-3292
▁비주얼	-3293
▁아이가	-3294
▁아줌마	-3295
▁정신병	-3296
▁지루할	-3297
없는영화	-3298
▁어린시절	-3299
▁이해하기	-3300
▁사랑이야기	-3301
▁꽃	-3302
▁센	-3303
느라	-3304
랐다	-3305
성에	-3306
성은	-3307
영이	-3308
이니	-3309
짱짱	-3310
한지	-3311
했어	-3312
▁가벼	-3313
▁그것	-3314
▁문화	-3315
♥♥♥	-3316
겠네요	-3317
배우가	-3318
보지마	-3319
비디오	-3320
▁결말은	-3321
▁더러운	-3322
▁잼있다	-3323
▁좋아서	-3324
▁질리지	-3325
▁하는데	-3326
▁닮	-3327
▁엽	-3328
냄새	-3329
두고	-3330
소녀	-3331
전쟁	-3332
줘서	-3333
편에	-3334
학년	-3335
▁~~	-3336
▁가진	-3337
▁나타	-3338
▁떠나	-3339
▁발견	-3340
▁분노	-3341
▁빼고	-3342
▁상처	-3343
▁야동	-3344
▁조합	-3345
▁지구	-3346
▁찌질	-3347
▁홍보	-3348
속에서	-3349
▁결말도	-3350
▁내가본	-3351
▁볼거리	-3352
▁연출도	-3353
▁원작의	-3354
▁이해할	-3355
▁지루하게	-3356
▁감동적이다	-3357
▁왤	-3358
노래	-3359
니당	-3360
려요	-3361
시나	-3362
작이	-3363
하군	-3364
▁개뿔	-3365
▁김수	-3366
▁다만	-3367
▁달달	-3368
▁발전	-3369
▁악당	-3370
▁없지	-3371
▁역할	-3372
▁올려	-3373
▁이럴	-3374
▁흐름	-3375
갈수록	-3376
처구니	-3377
해진다	-3378
~!!!	-3379
▁감정이	-3380
▁사랑의	-3381
▁싶네요	-3382
▁영화네	-3383
▁전설의	-3384
▁지금은	-3385
20	-3386
▁냉	-3387
▁쌍	-3388
루스	-3389
살다	-3390
세포	-3391
어이	-3392
자나	-3393
하진	-3394
형님	-3395
▁간다	-3396
▁같아	-3397
▁국내	-3398
▁우정	-3399
▁희생	-3400
까지는	-3401
으로서	-3402
▁보았다	-3403
▁손발이	-3404
▁장르가	-3405
▁재밌을	-3406
▁저렇게	-3407
▁E	-3408
▁l	-3409
▁갠	-3410
▁끄	-3411
▁뜻	-3412
▁웨	-3413
▁척	-3414
도안	-3415
독교	-3416
▁방법	-3417
▁의리	-3418
▁제로	-3419
▁젠장	-3420
▁크게	-3421
▁클레	-3422
▁해리	-3423
구하고	-3424
하려는	-3425
▁떠나서	-3426
▁열심히	-3427
재미없음	-3428
▁영화인듯	-3429
▁재미없게	-3430
▁지나치게	-3431
ie	-3432
▁e	-3433
▁멈	-3434
♡♡	-3435
기로	-3436
느니	-3437
러워	-3438
뭐야	-3439
불어	-3440
이스	-3441
인트	-3442
함의	-3443
100	-3444
▁낮네	-3445
▁떠오	-3446
▁복잡	-3447
▁북한	-3448
▁편견	-3449
▁한참	-3450
내용이	-3451
랍니다	-3452
시간에	-3453
아버지	-3454
였지만	-3455
줍니다	-3456
캐릭터	-3457
하다는	-3458
▁남자가	-3459
▁박수를	-3460
▁봤더니	-3461
▁아까울	-3462
▁없어요	-3463
▁오랜만	-3464
▁의미를	-3465
▁자신의	-3466
▁좋았으나	-3467
▁재미있습니다	-3468
bs	-3469
▁떡	-3470
걸로	-3471
돌아	-3472
러디	-3473
버그	-3474
뻔한	-3475
사이	-3476
수의	-3477
씨가	-3478
함에	-3479
..1	-3480
▁많다	-3481
▁못생	-3482
▁수도	-3483
▁오바	-3484
▁외계	-3485
▁할리	-3486
▁화끈	-3487
학교때	-3488
▁1,2	-3489
▁남자의	-3490
▁덕분에	-3491
▁멍청한	-3492
▁보인다	-3493
겠습니다	-3494
▁보고나면	-3495
▁영화보는	-3496
▁이제서야	-3497
▁초등학생	-3498
▁생각합니다	-3499
▁뱀	-3500
▁챙	-3501
들고	-3502
매력	-3503
였어	-3504
적은	-3505
정은	-3506
지다	-3507
형래	-3508
.^^	-3509
▁가까	-3510
▁바꿔	-3511
▁연결	-3512
▁일품	-3513
▁죽을	-3514
▁치밀	-3515
가지고	-3516
거같다	-3517
나네요	-3518
소리가	-3519
식으로	-3520
점만점	-3521
점정도	-3522
▁가슴아	-3523
▁누구나	-3524
▁아니야	-3525
▁없었던	-3526
▁이것이	-3527
▁한번쯤	-3528
▁아쉽네요	-3529
▁카리스마	-3530
▁이런영화를	-3531
▁재미없었다	-3532
▁p	-3533
▁됨	-3534
▁움	-3535
놈들	-3536
석이	-3537
언니	-3538
줘야	-3539
피소	-3540
호가	-3541
▁고등	-3542
▁고마	-3543
▁관한	-3544
▁김민	-3545
▁무척	-3546
▁새롭	-3547
▁신경	-3548
▁아들	-3549
▁안습	-3550
▁어우	-3551
▁풍경	-3552
감독의	-3553
겠어요	-3554
▁감명깊	-3555
▁스티븐	-3556
▁안되고	-3557
▁전문가	-3558
▁참으로	-3559
▁배우들도	-3560
▁사랑하는	-3561
VD	-3562
ar	-3563
▁봉	-3564
멘타	-3565
무지	-3566
아쉽	-3567
점줌	-3568
한것	-3569
함은	-3570
ver	-3571
▁끝이	-3572
▁다양	-3573
▁또한	-3574
▁맨날	-3575
▁빼면	-3576
▁쉽게	-3577
▁아픔	-3578
▁않게	-3579
▁여름	-3580
▁우려	-3581
긴한데	-3582
집니다	-3583
했는지	-3584
▁넘치는	-3585
▁명작이	-3586
▁최고임	-3587
배우들의	-3588
▁등장인물	-3589
▁비디오로	-3590
▁시리즈중	-3591
▁최고였다	-3592
▁컴	-3593
긴다	-3594
대단	-3595
시작	-3596
시즌	-3597
엄마	-3598
우리	-3599
이쁘	-3600
▁공부	-3601
▁군대	-3602
▁기가	-3603
▁능력	-3604
▁다니	-3605
▁되지	-3606
▁먹고	-3607
▁보이	-3608
▁세월	-3609
▁안본	-3610
▁외모	-3611
거리는	-3612
버스터	-3613
스타일	-3614
..;;	-3615
▁귀여워	-3616
▁그녀의	-3617
▁그렇지	-3618
▁느낌을	-3619
▁만든다	-3620
▁안보고	-3621
▁우리가	-3622
▁이유를	-3623
▁이후로	-3624
▁히어로	-3625
▁독립영화	-3626
▁보지마라	-3627
!!!!!!	-3628
▁=	-3629
▁납	-3630
감도	-3631
년의	-3632
럽고	-3633
뭥미	-3634
보네	-3635
아나	-3636
이들	-3637
하신	-3638
▁가면	-3639
▁감흥	-3640
▁끝날	-3641
▁낮지	-3642
▁박진	-3643
▁시각	-3644
▁아픈	-3645
▁올리	-3646
▁인디	-3647
▁작은	-3648
하려고	-3649
했네요	-3650
▁4.4	-3651
▁공포물	-3652
▁낚였다	-3653
▁소소한	-3654
▁웃기다	-3655
▁있구나	-3656
▁재미와	-3657
▁그저그런	-3658
▁재밌다고	-3659
▁던	-3660
▁업	-3661
겨진	-3662
애들	-3663
요일	-3664
주가	-3665
허접	-3666
▁고양	-3667
▁모험	-3668
▁삶에	-3669
▁속에	-3670
▁아프	-3671
▁여행	-3672
▁정의	-3673
▁주말	-3674
만들어	-3675
▁가슴을	-3676
▁김기덕	-3677
▁노래가	-3678
▁다시는	-3679
▁만들고	-3680
▁몰라도	-3681
▁못한다	-3682
▁무서워	-3683
▁이래서	-3684
▁좋았을	-3685
▁초반에	-3686
생각없이	-3687
있는영화	-3688
▁어처구니	-3689
▁작품이다	-3690
▁;	-3691
▁웰	-3692
누나	-3693
당한	-3694
먹는	-3695
어용	-3696
역사	-3697
▁다룬	-3698
▁드러	-3699
▁딱히	-3700
▁빈약	-3701
▁최초	-3702
▁통해	-3703
었는지	-3704
자체가	-3705
▁그당시	-3706
▁나오면	-3707
▁느끼는	-3708
▁더불어	-3709
▁비하면	-3710
▁싶은데	-3711
▁아쉬움	-3712
▁없는데	-3713
▁잼나게	-3714
▁하는지	-3715
▁훈훈한	-3716
더라구요	-3717
▁극장가서	-3718
▁기대이상	-3719
▁봐도봐도	-3720
▁재밋어요	-3721
▁진부하고	-3722
▁다큐멘터리	-3723
▁재미도없고	-3724
▁좋아하는데	-3725
▁W	-3726
▁맹	-3727
▁빅	-3728
니퍼	-3729
려나	-3730
리언	-3731
몰입	-3732
받은	-3733
제발	-3734
추기	-3735
트맨	-3736
▁늘어	-3737
▁동안	-3738
▁드림	-3739
▁상업	-3740
▁신비	-3741
▁쓸데	-3742
▁웃겼	-3743
▁전반	-3744
▁죽는	-3745
▁표정	-3746
야말로	-3747
점대는	-3748
▁노래도	-3749
▁봤을까	-3750
▁식상한	-3751
▁않지만	-3752
▁에피소	-3753
드립니다	-3754
...^^	-3755
▁왠만하면	-3756
▁잼있어요	-3757
▁특수효과	-3758
-^	-3759
.,	-3760
▁>	-3761
▁y	-3762
▁떨	-3763
▁멘	-3764
▁술	-3765
▁탑	-3766
과서	-3767
도는	-3768
로움	-3769
만다	-3770
묘한	-3771
버리	-3772
식을	-3773
신고	-3774
씨의	-3775
임스	-3776
있나	-3777
졸작	-3778
화를	-3779
후회	-3780
OOO	-3781
▁감히	-3782
▁깨닫	-3783
▁낚시	-3784
▁데이	-3785
▁되고	-3786
▁많아	-3787
▁못할	-3788
▁바꾸	-3789
▁반담	-3790
▁아기	-3791
▁아침	-3792
▁의심	-3793
▁이소	-3794
▁이은	-3795
▁이정	-3796
▁전율	-3797
▁파워	-3798
▁할까	-3799
▁해라	-3800
년도에	-3801
줄이야	-3802
▁the	-3803
▁사람의	-3804
▁집에서	-3805
▁추억이	-3806
▁한심한	-3807
▁행복한	-3808
▁보여준다	-3809
▁불구하고	-3810
▁잘봤어요	-3811
▁정말이지	-3812
11	-3813
▁n	-3814
▁쏘	-3815
▁찰	-3816
▁콜	-3817
▁팀	-3818
건만	-3819
과의	-3820
되서	-3821
듯이	-3822
레인	-3823
로의	-3824
씬은	-3825
웃김	-3826
원작	-3827
이기	-3828
제가	-3829
키는	-3830
▁겨울	-3831
▁낮다	-3832
▁만남	-3833
▁보통	-3834
▁설마	-3835
▁아역	-3836
▁야구	-3837
▁여태	-3838
▁영혼	-3839
▁제시	-3840
▁조카	-3841
▁하네	-3842
그대로	-3843
았지만	-3844
없네요	-3845
으니까	-3846
▁같아서	-3847
▁말아먹	-3848
▁비현실	-3849
▁지나도	-3850
♥♥♥♥	-3851
▁떨어진다	-3852
▁아까웠다	-3853
▁훌륭하다	-3854
ᄏᄏᄏᄏᄏᄏ	-3855
▁K	-3856
▁낭	-3857
▁씹	-3858
간의	-3859
공감	-3860
라가	-3861
만은	-3862
물이	-3863
버려	-3864
세기	-3865
식의	-3866
아름	-3867
운드	-3868
중훈	-3869
지네	-3870
하셨	-3871
▁고통	-3872
▁똑같	-3873
▁만한	-3874
▁뭘까	-3875
▁반성	-3876
▁받을	-3877
▁불쾌	-3878
▁어지	-3879
▁의문	-3880
▁잊지	-3881
▁최민	-3882
▁행동	-3883
▁허세	-3884
년만에	-3885
최악의	-3886
▁기독교	-3887
▁느낄수	-3888
▁보여줬	-3889
▁스파이	-3890
▁심하게	-3891
▁아이돌	-3892
▁영원히	-3893
▁오래된	-3894
▁이런건	-3895
▁있으면	-3896
▁주기도	-3897
▁ᄒᄒᄒᄒ	-3898
▁분위기가	-3899
▁인상적이	-3900
▁최고의영화	-3901
▁넌	-3902
▁엠	-3903
▁컨	-3904
관계	-3905
그리	-3906
냐고	-3907
리카	-3908
미가	-3909
바이	-3910
빨리	-3911
속의	-3912
원의	-3913
이여	-3914
임새	-3915
저도	-3916
▁거기	-3917
▁깜짝	-3918
▁꿈을	-3919
▁로봇	-3920
▁무리	-3921
▁본방	-3922
▁본지	-3923
▁악마	-3924
▁우주	-3925
▁으리	-3926
▁자살	-3927
▁조니	-3928
▁조작	-3929
들이랑	-3930
레이션	-3931
장면은	-3932
▁DVD	-3933
▁가슴에	-3934
▁그립다	-3935
▁영화들	-3936
▁완전히	-3937
▁있다니	-3938
▁잼있음	-3939
▁기억나는	-3940
▁좋았지만	-3941
▁캐릭터가	-3942
▁이런영화는	-3943
vd	-3944
▁껐	-3945
▁런	-3946
▁택	-3947
가네	-3948
굿굿	-3949
마이	-3950
배경	-3951
해보	-3952
▁달라	-3953
▁답이	-3954
▁따분	-3955
▁말았	-3956
▁믿기	-3957
▁세련	-3958
▁안쓰	-3959
▁이야	-3960
▁주기	-3961
▁지켜	-3962
▁타이	-3963
시키는	-3964
에대한	-3965
연기력	-3966
▁괜찮음	-3967
▁나에겐	-3968
▁대사가	-3969
▁로버트	-3970
▁명작을	-3971
▁미스터	-3972
▁보다니	-3973
▁심형래	-3974
▁싶어요	-3975
▁연예인	-3976
▁이상의	-3977
▁작품을	-3978
▁제이슨	-3979
▁패러디	-3980
▁드립니다	-3981
▁클레멘타	-3982
▁재미없어서	-3983
▁크리스마스	-3984
it	-3985
ut	-3986
가를	-3987
거라	-3988
따위	-3989
뢰매	-3990
만을	-3991
머리	-3992
빼고	-3993
안됨	-3994
했나	-3995
▁겨우	-3996
▁류승	-3997
▁못함	-3998
▁열연	-3999
▁왤케	-4000
▁인기	-4001
▁인도	-4002
▁잤다	-4003
▁조절	-4004
들이나	-4005
보니까	-4006
▁가치가	-4007
▁교과서	-4008
▁구성이	-4009
▁귀엽다	-4010
▁뛰어넘	-4011
▁못하다	-4012
▁별로임	-4013
▁예쁘고	-4014
▁우리는	-4015
▁우리의	-4016
▁작품은	-4017
▁잔인한	-4018
▁정도의	-4019
▁평점조	-4020
▁표현한	-4021
▁느껴진다	-4022
▁만들어도	-4023
▁짜증난다	-4024
en	-4025
▁깎	-4026
▁엿	-4027
관이	-4028
나니	-4029
년작	-4030
뭔가	-4031
셔서	-4032
웃겨	-4033
취향	-4034
했지	-4035
▁가져	-4036
▁기술	-4037
▁눈에	-4038
▁봤네	-4039
▁인터	-4040
▁정체	-4041
▁형님	-4042
▁힘이	-4043
어야지	-4044
하시는	-4045
▁199	-4046
▁나오지	-4047
▁내생에	-4048
▁답답한	-4049
▁두번째	-4050
▁새벽에	-4051
▁소름이	-4052
▁아류작	-4053
▁이딴걸	-4054
▁인간이	-4055
▁진짜로	-4056
▁따뜻하고	-4057
▁생각한다	-4058
▁안타까운	-4059
▁포스터가	-4060
▁케이블에서	-4061
▁ᄏᄏᄏᄏᄏᄏᄏ	-4062
as	-4063
▁F	-4064
▁섞	-4065
▁쏟	-4066
개그	-4067
대를	-4068
더빙	-4069
따뜻	-4070
어디	-4071
▁강력	-4072
▁과장	-4073
▁명화	-4074
▁뭐라	-4075
▁선동	-4076
▁아동	-4077
▁양심	-4078
▁어째	-4079
▁이민	-4080
▁일깨	-4081
▁진리	-4082
감독이	-4083
되네요	-4084
만큼은	-4085
었을까	-4086
했다는	-4087
▁관객을	-4088
▁기다려	-4089
▁느낌의	-4090
▁보다는	-4091
▁보지말	-4092
▁본다면	-4093
▁엔딩이	-4094
▁여운을	-4095
▁초딩때	-4096
좋아하는	-4097
▁괜찮았다	-4098
▁만든영화	-4099
▁불쌍하다	-4100
▁시리즈는	-4101
▁장면에서	-4102
▁재밌어서	-4103
▁평점보고	-4104
▁시간아깝다	-4105
ad	-4106
▁X	-4107
▁끈	-4108
▁맡	-4109
▁탐	-4110
국영	-4111
다큐	-4112
딩때	-4113
물을	-4114
삭제	-4115
일본	-4116
▁관심	-4117
▁국민	-4118
▁도전	-4119
▁디워	-4120
▁못해	-4121
▁방영	-4122
▁불러	-4123
▁사진	-4124
▁열정	-4125
▁이도	-4126
▁있네	-4127
▁작위	-4128
▁장애	-4129
▁한숨	-4130
메이드	-4131
부분이	-4132
웠지만	-4133
점부터	-4134
▁놀라운	-4135
▁만들면	-4136
▁많은걸	-4137
▁박중훈	-4138
▁뿐이다	-4139
▁수준의	-4140
▁연기자	-4141
▁최근에	-4142
영화보다	-4143
▁러닝타임	-4144
▁어설프고	-4145
▁이상하게	-4146
▁좋아해서	-4147
12	-4148
게요	-4149
빠진	-4150
오래	-4151
000	-4152
est	-4153
▁거슬	-4154
▁내게	-4155
▁내면	-4156
▁다이	-4157
▁달콤	-4158
▁돈을	-4159
▁받아	-4160
▁유아	-4161
▁이병	-4162
▁잔혹	-4163
▁잠깐	-4164
그래서	-4165
이었음	-4166
있어서	-4167
하다가	-4168
▁괜찮다	-4169
▁다세포	-4170
▁매력을	-4171
▁세상을	-4172
▁어쩔수	-4173
▁원작에	-4174
▁제니퍼	-4175
▁최고로	-4176
▁몰입해서	-4177
▁영화라니	-4178
▁영화인가	-4179
▁재밌다는	-4180
▁좋겠어요	-4181
▁다시보고싶	-4182
▁됬	-4183
▁빡	-4184
▁육	-4185
관람	-4186
는듯	-4187
드림	-4188
라기	-4189
버림	-4190
복을	-4191
사수	-4192
어주	-4193
억지	-4194
웃기	-4195
인도	-4196
제작	-4197
치곤	-4198
▁21	-4199
▁검색	-4200
▁끔찍	-4201
▁끝났	-4202
▁넘게	-4203
▁단지	-4204
▁묻어	-4205
▁바뀌	-4206
▁서부	-4207
▁수고	-4208
▁스페	-4209
▁주윤	-4210
▁착한	-4211
▁투자	-4212
되었다	-4213
려다가	-4214
봤네요	-4215
엇는데	-4216
차라리	-4217
파이어	-4218
했으나	-4219
ᄒᄒᄒᄒ	-4220
▁감동받	-4221
▁개노잼	-4222
▁나오네	-4223
▁반전은	-4224
▁브루스	-4225
▁없다는	-4226
▁연기잘	-4227
▁예쁘다	-4228
▁왜이러	-4229
▁작가가	-4230
▁재미로	-4231
▁재밋음	-4232
▁제목만	-4233
▁할머니	-4234
영화인데	-4235
▁4.44	-4236
▁만들다니	-4237
▁볼만했다	-4238
▁생각하고	-4239
...........	-4240
ᅲᅮ	-4241
▁k	-4242
▁몬	-4243
▁뿌	-4244
▁픽	-4245
것만	-4246
귀여	-4247
긴장	-4248
루즈	-4249
번은	-4250
스포	-4251
신은	-4252
씬이	-4253
얘기	-4254
어리	-4255
였네	-4256
이걸	-4257
종일	-4258
토록	-4259
티브	-4260
해지	-4261
▁sf	-4262
▁끌어	-4263
▁나랑	-4264
▁다섯	-4265
▁따로	-4266
▁무술	-4267
▁분들	-4268
▁심오	-4269
▁잔뜩	-4270
▁지겨	-4271
▁커플	-4272
▁테러	-4273
▁하늘	-4274
것같은	-4275
더라도	-4276
있었다	-4277
지않고	-4278
하자는	-4279
▁가벼운	-4280
▁나왔다	-4281
▁남네요	-4282
▁보기에	-4283
▁스크린	-4284
▁영상과	-4285
▁잘어울	-4286
▁점수준	-4287
▁하나의	-4288
▁한국인	-4289
▁돋보이는	-4290
▁마지막이	-4291
▁믿고보는	-4292
▁살다살다	-4293
▁아쉽지만	-4294
▁없습니다	-4295
▁영화인지	-4296
▁만들었는지	-4297
▁아까운영화	-4298
▁킬링타임용으로	-4299
▁ᄇ	-4300
▁깡	-4301
▁낙	-4302
▁님	-4303
니깐	-4304
다음	-4305
래곤	-4306
로드	-4307
보지	-4308
으리	-4309
이도	-4310
절대	-4311
치가	-4312
치노	-4313
피스	-4314
..!	-4315
▁교육	-4316
▁낮아	-4317
▁때문	-4318
▁묘사	-4319
▁베드	-4320
▁블록	-4321
▁안볼	-4322
▁연극	-4323
▁응원	-4324
▁충실	-4325
기에는	-4326
면에서	-4327
버리는	-4328
아니라	-4329
웠어요	-4330
인줄알	-4331
?...	-4332
▁dvd	-4333
▁감독을	-4334
▁감동은	-4335
▁개막장	-4336
▁그자체	-4337
▁나쁘지	-4338
▁말하는	-4339
▁모르게	-4340
▁연출과	-4341
▁영상이	-4342
▁울리는	-4343
▁잘하고	-4344
해주세요	-4345
▁나름대로	-4346
▁사랑해요	-4347
▁엉성하고	-4348
▁재미있는데	-4349
▁썼	-4350
▁옥	-4351
덕화	-4352
박한	-4353
상은	-4354
소설	-4355
애가	-4356
얼굴	-4357
왔다	-4358
제로	-4359
▁결코	-4360
▁깨달	-4361
▁꼬마	-4362
▁만나	-4363
▁매미	-4364
▁못봐	-4365
▁무한	-4366
▁뭥미	-4367
▁별반	-4368
▁본거	-4369
▁부실	-4370
▁안봤	-4371
▁야한	-4372
▁어두	-4373
▁영어	-4374
▁욕망	-4375
▁움직	-4376
▁일부	-4377
▁좋게	-4378
▁탄생	-4379
▁하품	-4380
감독님	-4381
기전에	-4382
▁봐야지	-4383
▁봤을때	-4384
▁않을까	-4385
▁영원한	-4386
▁은근히	-4387
▁짜임새	-4388
▁참신한	-4389
▁한편의	-4390
▁긴장감이	-4391
▁마이너스	-4392
▁무엇인지	-4393
▁아이들과	-4394
▁연기력도	-4395
▁유일하게	-4396
▁재밌었던	-4397
쓰레기영화	-4398
재미있어요	-4399
▁뽑	-4400
▁쥬	-4401
▁첩	-4402
▁휘	-4403
데체	-4404
러스	-4405
모두	-4406
미네	-4407
버스	-4408
분은	-4409
어린	-4410
없지	-4411
와의	-4412
직한	-4413
티노	-4414
햇다	-4415
^^*	-4416
▁갈등	-4417
▁강한	-4418
▁결과	-4419
▁남은	-4420
▁담배	-4421
▁땜에	-4422
▁먼가	-4423
▁반복	-4424
▁봐줄	-4425
▁생에	-4426
▁정우	-4427
▁즐겨	-4428
▁지났	-4429
아저씨	-4430
아직도	-4431
화이팅	-4432
▁2.2	-4433
▁내생애	-4434
▁별로고	-4435
▁숨겨진	-4436
▁스포츠	-4437
▁아깝고	-4438
▁영화야	-4439
▁울면서	-4440
▁이따구	-4441
▁제임스	-4442
▁최고봉	-4443
▁후속작	-4444
스토리도	-4445
재미있게	-4446
하지마라	-4447
▁수작이다	-4448
▁오랫만에	-4449
영화입니다	-4450
▁영화보면서	-4451
ᄏᄏᄏᄏᄏᄏᄏ	-4452
▁늑	-4453
감은	-4454
게임	-4455
는대	-4456
데이	-4457
무시	-4458
우가	-4459
음이	-4460
이로	-4461
이며	-4462
자고	-4463
추억	-4464
▁--	-4465
▁가르	-4466
▁감안	-4467
▁공짜	-4468
▁그거	-4469
▁꼭보	-4470
▁높게	-4471
▁모를	-4472
▁빠진	-4473
▁아냐	-4474
▁애기	-4475
▁열받	-4476
▁웃고	-4477
▁자랑	-4478
▁자주	-4479
▁죽은	-4480
▁줘야	-4481
▁통쾌	-4482
있네요	-4483
전개가	-4484
주기도	-4485
지루함	-4486
포스터	-4487
▁ᄍᄍᄍ	-4488
▁동성애	-4489
▁사랑해	-4490
▁생각함	-4491
▁아니지	-4492
▁영화같	-4493
▁영환데	-4494
▁일깨워	-4495
배우들이	-4496
~~~~~	-4497
▁괜찮네요	-4498
▁궁금하다	-4499
▁언제봐도	-4500
▁있었지만	-4501
▁막장드라마	-4502
▁만들었을까	-4503
▁사랑합니다	-4504
▁재미있었음	-4505
▁N	-4506
▁h	-4507
▁묵	-4508
▁벤	-4509
▁옆	-4510
▁컬	-4511
▁팝	-4512
▁홀	-4513
개는	-4514
그만	-4515
드만	-4516
드시	-4517
때매	-4518
바로	-4519
분을	-4520
설정	-4521
아쉬	-4522
엇음	-4523
오오	-4524
점수	-4525
지현	-4526
코믹	-4527
▁김태	-4528
▁남겨	-4529
▁낮게	-4530
▁망한	-4531
▁뭐니	-4532
▁빵빵	-4533
▁살려	-4534
▁새끼	-4535
▁수면	-4536
▁싶을	-4537
▁알수	-4538
▁죽이	-4539
▁집에	-4540
재밌어	-4541
적이지	-4542
,.,.	-4543
▁갑니다	-4544
▁귀여움	-4545
▁모두가	-4546
▁시간때	-4547
▁안봐도	-4548
▁유일한	-4549
▁잊혀지	-4550
▁재개봉	-4551
▁특별한	-4552
▁한개도	-4553
▁모르겠음	-4554
▁못보겠다	-4555
▁볼수있는	-4556
▁생각나서	-4557
▁남자주인공	-4558
▁모르겠지만	-4559
.0	-4560
99	-4561
om	-4562
▁효	-4563
낮은	-4564
드를	-4565
라의	-4566
발견	-4567
분의	-4568
상의	-4569
슨의	-4570
시오	-4571
우고	-4572
이에	-4573
장실	-4574
정의	-4575
후의	-4576
▁:)	-4577
▁감각	-4578
▁게이	-4579
▁경험	-4580
▁내돈	-4581
▁둘째	-4582
▁라고	-4583
▁많고	-4584
▁베리	-4585
▁볼때	-4586
▁봤을	-4587
▁수입	-4588
▁아닙	-4589
▁아우	-4590
▁안에	-4591
▁제외	-4592
▁찍어	-4593
▁챙겨	-4594
▁축구	-4595
▁폭풍	-4596
▁학생	-4597
란티노	-4598
부터가	-4599
속으로	-4600
좋았다	-4601
한다고	-4602
~~!!	-4603
▁놀랍다	-4604
▁들었다	-4605
▁모든걸	-4606
▁배우를	-4607
▁소재도	-4608
▁않네요	-4609
▁어렵다	-4610
▁어설프	-4611
▁없나요	-4612
▁정도면	-4613
▁조니뎁	-4614
▁죽이는	-4615
▁한국판	-4616
같은영화	-4617
▁내용인지	-4618
▁여러가지	-4619
▁연기력은	-4620
▁여주인공이	-4621
▁한국영화의	-4622
????????	-4623
.3	-4624
▁/	-4625
▁ᄆ	-4626
▁헬	-4627
관객	-4628
구성	-4629
냈다	-4630
드로	-4631
드리	-4632
레딧	-4633
불허	-4634
사건	-4635
상수	-4636
성기	-4637
소름	-4638
싶다	-4639
아치	-4640
장한	-4641
짬뽕	-4642
출연	-4643
ᅮᅮᅮ	-4644
▁기회	-4645
▁길게	-4646
▁다신	-4647
▁단편	-4648
▁떠올	-4649
▁로빈	-4650
▁상관	-4651
▁시끄	-4652
▁오빠	-4653
▁오우	-4654
▁울컥	-4655
▁이끌	-4656
▁일반	-4657
▁지겹	-4658
▁케빈	-4659
▁하아	-4660
갑니다	-4661
라이언	-4662
이였다	-4663
최고다	-4664
▁감정을	-4665
▁강렬한	-4666
▁러시아	-4667
▁반전을	-4668
▁본건데	-4669
▁살면서	-4670
▁소설을	-4671
▁영화화	-4672
▁원작이	-4673
▁이뻐서	-4674
▁인생에	-4675
▁중에서	-4676
▁하나로	-4677
▁허술한	-4678
내용인지	-4679
보는내내	-4680
▁포스터만	-4681
▁볼만합니다	-4682
▁억지스러운	-4683
▁감동적이네요	-4684
es	-4685
is	-4686
▁갓	-4687
▁를	-4688
▁링	-4689
▁킹	-4690
▁혁	-4691
노답	-4692
높은	-4693
보영	-4694
아무	-4695
이리	-4696
인과	-4697
쟁이	-4698
적임	-4699
테일	-4700
포터	-4701
▁김희	-4702
▁난잡	-4703
▁로코	-4704
▁미쳤	-4705
▁밀려	-4706
▁빨갱	-4707
▁빵점	-4708
▁살린	-4709
▁손색	-4710
▁손에	-4711
▁유지	-4712
▁일베	-4713
▁자식	-4714
▁재능	-4715
▁조선	-4716
▁즐기	-4717
보이는	-4718
불허전	-4719
어버린	-4720
연기는	-4721
▁교훈을	-4722
▁다양한	-4723
▁당신은	-4724
▁돌아가	-4725
▁보려고	-4726
▁시간만	-4727
▁우뢰매	-4728
▁이보다	-4729
▁이소룡	-4730
▁지겹다	-4731
▁흥미로	-4732
마지막에	-4733
미네이터	-4734
했었는데	-4735
▁나레이션	-4736
▁봤는데도	-4737
▁재미있어	-4738
▁한국에서	-4739
▁블록버스터	-4740
!!!!!!!!!!!!!!!!	-4741
zz	-4742
▁L	-4743
▁낯	-4744
▁샘	-4745
▁옷	-4746
▁쿵	-4747
갔다	-4748
는건	-4749
능력	-4750
대해	-4751
세여	-4752
어색	-4753
존나	-4754
티즌	-4755
후반	-4756
▁대중	-4757
▁리즈	-4758
▁마무	-4759
▁빼곤	-4760
▁아놀	-4761
▁암튼	-4762
▁애매	-4763
▁언젠	-4764
▁없냐	-4765
▁익숙	-4766
▁조낸	-4767
▁주지	-4768
▁직접	-4769
▁짜집	-4770
▁편안	-4771
었구나	-4772
으로써	-4773
재미도	-4774
▁ᄃᄃᄃ	-4775
▁다르다	-4776
▁머리가	-4777
▁멋있는	-4778
▁멋지고	-4779
▁배우도	-4780
▁스스로	-4781
▁액션을	-4782
▁하는거	-4783
것같아요	-4784
긴하지만	-4785
▁명불허전	-4786
▁보기에는	-4787
▁사람들의	-4788
▁장난하냐	-4789
▁보았습니다	-4790
▁여자주인공	-4791
▁감동적이에요	-4792
▁곽	-4793
▁옹	-4794
▁펼	-4795
같아	-4796
개가	-4797
거면	-4798
귀엽	-4799
낸다	-4800
라노	-4801
로써	-4802
명을	-4803
신의	-4804
싫다	-4805
아누	-4806
이래	-4807
일의	-4808
장르	-4809
정한	-4810
정화	-4811
조금	-4812
팔이	-4813
▁근래	-4814
▁당연	-4815
▁망친	-4816
▁못미	-4817
▁본듯	-4818
▁비밀	-4819
▁설득	-4820
▁심장	-4821
▁엑스	-4822
▁오브	-4823
▁원조	-4824
▁중독	-4825
▁책을	-4826
답니다	-4827
만하다	-4828
애들이	-4829
하나도	-4830
▁you	-4831
▁거짓말	-4832
▁닥치고	-4833
▁동시에	-4834
▁반드시	-4835
▁사운드	-4836
▁속았다	-4837
▁스릴도	-4838
▁알겠다	-4839
▁잊을수	-4840
▁적어도	-4841
▁전개도	-4842
▁점수는	-4843
▁주윤발	-4844
▁주제를	-4845
▁허무한	-4846
극장에서	-4847
▁생각난다	-4848
▁생각으로	-4849
▁생각하는	-4850
▁알겠는데	-4851
▁앞으로도	-4852
▁어울리는	-4853
▁웃으면서	-4854
▁웰메이드	-4855
▁잔잔하게	-4856
▁좋겠네요	-4857
▁괜찮았는데	-4858
al	-4859
▁깍	-4860
▁꿀	-4861
▁땡	-4862
▁린	-4863
▁칭	-4864
광구	-4865
로만	-4866
서는	-4867
스에	-4868
스키	-4869
악한	-4870
엄청	-4871
연의	-4872
오브	-4873
요소	-4874
커플	-4875
^-^	-4876
▁거장	-4877
▁과대	-4878
▁뭐임	-4879
▁범인	-4880
▁본게	-4881
▁부부	-4882
▁비행	-4883
▁사무	-4884
▁안될	-4885
▁영구	-4886
▁장진	-4887
▁짝이	-4888
▁평균	-4889
▁했음	-4890
▁헤어	-4891
▁흑인	-4892
겁니다	-4893
관에서	-4894
어떻게	-4895
여운이	-4896
으로만	-4897
~~^^	-4898
▁괜찮고	-4899
▁소재와	-4900
▁여자의	-4901
▁역겨운	-4902
▁위해서	-4903
▁전쟁의	-4904
▁가족영화	-4905
▁그야말로	-4906
▁답답하고	-4907
▁매력적이	-4908
▁생각하면	-4909
▁스토리의	-4910
▁영화예요	-4911
▁집중해서	-4912
▁말도안되는	-4913
▁R	-4914
▁뗄	-4915
▁록	-4916
▁벨	-4917
▁숀	-4918
▁엔	-4919
그랬	-4920
나의	-4921
되면	-4922
로맨	-4923
문제	-4924
부작	-4925
불쌍	-4926
상에	-4927
스크	-4928
싫어	-4929
아내	-4930
이름	-4931
지요	-4932
쯧쯧	-4933
하길	-4934
▁개념	-4935
▁다크	-4936
▁두근	-4937
▁맛이	-4938
▁보며	-4939
▁살고	-4940
▁소피	-4941
▁스텝	-4942
▁실험	-4943
▁싸움	-4944
▁암울	-4945
▁어쩜	-4946
▁열라	-4947
▁위대	-4948
▁유럽	-4949
▁짐캐	-4950
▁집착	-4951
▁짧은	-4952
▁향연	-4953
▁형사	-4954
다는거	-4955
인데도	-4956
잖아요	-4957
재밋게	-4958
하고자	-4959
▁만화책	-4960
▁불쌍한	-4961
▁아프다	-4962
▁없었음	-4963
▁이해안	-4964
▁잊지못	-4965
▁현실성	-4966
▁화장실	-4967
▁희대의	-4968
스토리가	-4969
웠습니다	-4970
▁그렇다고	-4971
▁기대이하	-4972
▁다시보고	-4973
▁모르겠고	-4974
▁아름답게	-4975
▁영화였음	-4976
▁오래전에	-4977
▁유치해서	-4978
▁재미없을	-4979
▁최고최고	-4980
▁태어나서	-4981
▁블랙코미디	-4982
▁아무생각없이	-4983
ᄏᄏᄏᄏᄏᄏᄏᄏᄏᄏᄏᄏᄏᄏᄏᄏ	-4984
.-	-4985
▁났	-4986
▁뽀	-4987
가리	-4988
가의	-4989
동차	-4990
르게	-4991
림이	-4992
물로	-4993
솔직	-4994
아빠	-4995
없나	-4996
여진	-4997
웨이	-4998
이딴	-4999
이어	-5000
졌음	-5001
찬란	-5002
▁14	-5003
▁??	-5004
▁놓고	-5005
▁망치	-5006
▁배꼽	-5007
▁빵터	-5008
▁성격	-5009
▁싶지	-5010
▁잠이	-5011
▁진수	-5012
▁치고	-5013
▁팬이	-5014
는거야	-5015
던영화	-5016
분만에	-5017
중에서	-5018
▁떨어지	-5019
▁불편한	-5020
▁스타뎀	-5021
▁않은데	-5022
▁알았네	-5023
▁어른이	-5024
▁웃었다	-5025
▁유명한	-5026
▁의미가	-5027
▁이병헌	-5028
▁인생은	-5029
▁있어야	-5030
▁장국영	-5031
▁잼있는	-5032
▁죽이고	-5033
▁하길래	-5034
점만점에	-5035
좋은영화	-5036
▁괜찮았음	-5037
▁기대없이	-5038
▁꼭보세요	-5039
▁말하고자	-5040
▁몰입도가	-5041
▁이야기는	-5042
▁포스터에	-5043
**	-5044
▁ᄡ	-5045
▁혐	-5046
강호	-5047
국의	-5048
들러	-5049
로가	-5050
리와	-5051
만도	-5052
문화	-5053
분위	-5054
생활	-5055
신분	-5056
앗다	-5057
았네	-5058
없게	-5059
에로	-5060
여행	-5061
우의	-5062
인것	-5063
일듯	-5064
정쩡	-5065
주일	-5066
쳐서	-5067
킬링	-5068
테러	-5069
퓨터	-5070
프닝	-5071
하균	-5072
▁60	-5073
▁거부	-5074
▁깡패	-5075
▁냄새	-5076
▁넘넘	-5077
▁다를	-5078
▁데뷔	-5079
▁둘이	-5080
▁비판	-5081
▁아래	-5082
▁언니	-5083
▁유발	-5084
▁이용	-5085
▁절망	-5086
▁참나	-5087
▁프레	-5088
▁효과	-5089
나오네	-5090
다는걸	-5091
때까지	-5092
점대가	-5093
점으로	-5094
▁그림체	-5095
▁기대가	-5096
▁깨닫게	-5097
▁높아서	-5098
▁대해서	-5099
▁데리고	-5100
▁또다른	-5101
▁안무서	-5102
▁영화와	-5103
▁적당히	-5104
▁주제가	-5105
▁처음에	-5106
▁첫사랑	-5107
▁황당한	-5108
사람들이	-5109
▁귀여워요	-5110
▁기대하지	-5111
▁다행이다	-5112
▁만들어라	-5113
▁보지마셈	-5114
▁봐야하는	-5115
▁순수하고	-5116
▁억지감동	-5117
▁영화자체	-5118
▁이런류의	-5119
▁전쟁영화	-5120
▁하나같이	-5121
▁감동입니다	-5122
▁시나리오가	-5123
▁점수준것들	-5124
▁최악의영화	-5125
▁재미있었습니다	-5126
▁P	-5127
▁굴	-5128
▁틈	-5129
글자	-5130
느껴	-5131
라인	-5132
리엄	-5133
모든	-5134
받고	-5135
시원	-5136
아노	-5137
야할	-5138
요즘	-5139
울뿐	-5140
워즈	-5141
월한	-5142
이였	-5143
자와	-5144
조아	-5145
지어	-5146
통령	-5147
해선	-5148
..2	-5149
?..	-5150
▁담백	-5151
▁대본	-5152
▁말자	-5153
▁무게	-5154
▁바이	-5155
▁않나	-5156
▁예수	-5157
▁임창	-5158
▁적절	-5159
▁진한	-5160
▁추격	-5161
▁형제	-5162
▁흡입	-5163
레이드	-5164
류영화	-5165
리네요	-5166
▁;;;	-5167
▁괜찮게	-5168
▁네티즌	-5169
▁당신이	-5170
▁도데체	-5171
▁시도는	-5172
▁아깝네	-5173
▁안간다	-5174
▁애들은	-5175
▁액션과	-5176
▁약간의	-5177
▁어디로	-5178
▁엄마가	-5179
▁여러번	-5180
▁이만한	-5181
▁제시카	-5182
▁짜증이	-5183
▁출연한	-5184
▁키아누	-5185
▁하는게	-5186
▁2000	-5187
▁Good	-5188
▁만들었나	-5189
▁산만하고	-5190
▁시청률이	-5191
▁해리포터	-5192
▁홍콩영화	-5193
▁코미디영화	-5194
30	-5195
▁곱	-5196
▁댄	-5197
▁죠	-5198
꺼야	-5199
나름	-5200
모로	-5201
스톤	-5202
신을	-5203
아오	-5204
았을	-5205
언제	-5206
오랜	-5207
인들	-5208
트의	-5209
하러	-5210
▁,,	-5211
▁거북	-5212
▁굳굳	-5213
▁기자	-5214
▁기준	-5215
▁김치	-5216
▁때려	-5217
▁로드	-5218
▁로망	-5219
▁맞아	-5220
▁맞지	-5221
▁바다	-5222
▁세번	-5223
▁에효	-5224
▁우디	-5225
▁인형	-5226
▁임팩	-5227
▁잠시	-5228
▁조화	-5229
▁즐길	-5230
▁키스	-5231
▁폭발	-5232
▁플롯	-5233
▁해석	-5234
▁호기	-5235
그러나	-5236
기억이	-5237
스럽지	-5238
▁나머지	-5239
▁낮네요	-5240
▁다보고	-5241
▁드디어	-5242
▁드래곤	-5243
▁많아서	-5244
▁매력에	-5245
▁소중한	-5246
▁속에서	-5247
▁시간에	-5248
▁아들이	-5249
▁아만다	-5250
▁일본은	-5251
▁희망을	-5252
거같아요	-5253
있습니다	-5254
▁!!!!	-5255
▁2014	-5256
▁마음으로	-5257
▁뱀파이어	-5258
▁스트레스	-5259
▁아닙니다	-5260
▁여자친구	-5261
▁영화인줄	-5262
▁제작비가	-5263
▁충격적인	-5264
▁할리우드	-5265
▁잘만들었다	-5266
.!	-5267
ot	-5268
ow	-5269
▁튀	-5270
가에	-5271
동원	-5272
때문	-5273
러진	-5274
맘에	-5275
버릴	-5276
볼수	-5277
선생	-5278
스틱	-5279
싸움	-5280
어의	-5281
임을	-5282
있을	-5283
주연	-5284
줄은	-5285
▁ᄌᄂ	-5286
▁개성	-5287
▁거품	-5288
▁결정	-5289
▁고맙	-5290
▁김혜	-5291
▁꿈꾸	-5292
▁늦게	-5293
▁따위	-5294
▁매일	-5295
▁압도	-5296
▁오유	-5297
▁이다	-5298
▁줄리	-5299
▁쩔어	-5300
▁착각	-5301
▁해결	-5302
▁허허	-5303
▁힘내	-5304
내용은	-5305
던데요	-5306
봐야지	-5307
분동안	-5308
스러워	-5309
었다는	-5310
재밋다	-5311
지도않	-5312
하하하	-5313
▁ᄒᄃᄃ	-5314
▁가족의	-5315
▁내용과	-5316
▁느꼈다	-5317
▁당시에	-5318
▁당연히	-5319
▁만점에	-5320
▁말고는	-5321
▁말밖에	-5322
▁매니아	-5323
▁멋져요	-5324
▁반전에	-5325
▁배트맨	-5326
▁사이코	-5327
▁아무도	-5328
▁안본다	-5329
▁않아서	-5330
▁알았음	-5331
▁양아치	-5332
▁얼굴이	-5333
▁여러분	-5334
▁여자들	-5335
▁우려먹	-5336
▁이름을	-5337
▁이름이	-5338
▁잘한다	-5339
▁저평가	-5340
▁짜증남	-5341
▁하면서	-5342
▁한국의	-5343
사람들은	-5344
지않는다	-5345
▁감동이다	-5346
▁감명깊게	-5347
▁개연성이	-5348
▁다운받아	-5349
▁보았는데	-5350
▁삼류영화	-5351
▁에로영화	-5352
▁영상미가	-5353
▁오글오글	-5354
▁잼있네요	-5355
▁전편보다	-5356
▁타란티노	-5357
▁필요한가	-5358
▁좋아하지만	-5359
▁터미네이터	-5360
80	-5361
ic	-5362
od	-5363
▁덤	-5364
▁맙	-5365
▁염	-5366
거든	-5367
겨서	-5368
났음	-5369
더더	-5370
못해	-5371
므로	-5372
시청	-5373
정우	-5374
졌던	-5375
진실	-5376
초반	-5377
▁가지	-5378
▁건가	-5379
▁겉멋	-5380
▁깊게	-5381
▁달리	-5382
▁도망	-5383
▁드니	-5384
▁따름	-5385
▁멋져	-5386
▁무난	-5387
▁박신	-5388
▁배역	-5389
▁버려	-5390
▁서울	-5391
▁쓸쓸	-5392
▁아담	-5393
▁애잔	-5394
▁없게	-5395
▁원주	-5396
▁자고	-5397
▁좋네	-5398
▁할수	-5399
없어요	-5400
영화제	-5401
장에서	-5402
좋네요	-5403
좋은데	-5404
파치노	-5405
하는건	-5406
...!	-5407
▁개꿀잼	-5408
▁공감할	-5409
▁기분나	-5410
▁똑같은	-5411
▁막판에	-5412
▁무섭게	-5413
▁뭐하나	-5414
▁봤다면	-5415
▁아무런	-5416
▁어정쩡	-5417
▁여자는	-5418
▁유치해	-5419
▁재밌었	-5420
▁좋을듯	-5421
▁줍니다	-5422
▁집중이	-5423
▁짜증만	-5424
▁한번더	-5425
▁흐르는	-5426
▁2.22	-5427
▁~~~~	-5428
▁개연성도	-5429
▁소중함을	-5430
▁시작해서	-5431
▁에피소드	-5432
▁주인공은	-5433
▁짜증나서	-5434
▁최고네요	-5435
▁최고에요	-5436
▁작품입니다	-5437
▁재미없네요	-5438
▁말이필요없다	-5439
▁ᄅ	-5440
▁든	-5441
▁멜	-5442
▁벅	-5443
▁앉	-5444
▁액	-5445
▁컸	-5446
동생	-5447
랜드	-5448
만족	-5449
뭐냐	-5450
미는	-5451
바라	-5452
상영	-5453
없을	-5454
예진	-5455
음을	-5456
잔잔	-5457
조현	-5458
즈의	-5459
할뿐	-5460
형제	-5461
혼자	-5462
▁갖고	-5463
▁개나	-5464
▁늑대	-5465
▁당황	-5466
▁루즈	-5467
▁망가	-5468
▁몽환	-5469
▁무료	-5470
▁뭐여	-5471
▁별한	-5472
▁보라	-5473
▁사투	-5474
▁생활	-5475
▁실감	-5476
▁여친	-5477
▁역겨	-5478
▁왜곡	-5479
▁이수	-5480
▁처럼	-5481
▁테이	-5482
▁흑백	-5483
지않다	-5484
▁공포가	-5485
▁끝나서	-5486
▁너무도	-5487
▁대놓고	-5488
▁도무지	-5489
▁따뜻해	-5490
▁라스트	-5491
▁만드네	-5492
▁명대사	-5493
▁명성에	-5494
▁무섭고	-5495
▁부모님	-5496
▁시대의	-5497
▁없는게	-5498
▁영화지	-5499
▁웃기는	-5500
▁이토록	-5501
▁좋으나	-5502
▁짜집기	-5503
시나리오	-5504
지루하고	-5505
▁100%	-5506
▁다시보니	-5507
▁미안하다	-5508
▁배우들은	-5509
▁보여주고	-5510
▁스타워즈	-5511
▁실망이다	-5512
▁안보는게	-5513
▁어설프다	-5514
▁어이없다	-5515
▁울었어요	-5516
▁짜증나게	-5517
............	-5518
90	-5519
▁&	-5520
▁J	-5521
▁떼	-5522
▁숙	-5523
▁큐	-5524
놨네	-5525
동근	-5526
로로	-5527
롭고	-5528
루토	-5529
물의	-5530
부가	-5531
부는	-5532
살아	-5533
아는	-5534
위한	-5535
잖은	-5536
잡고	-5537
쥬얼	-5538
차별	-5539
트를	-5540
호감	-5541
▁개콘	-5542
▁괜찬	-5543
▁그걸	-5544
▁길이	-5545
▁나음	-5546
▁말해	-5547
▁멋짐	-5548
▁몇몇	-5549
▁미녀	-5550
▁박수	-5551
▁밤에	-5552
▁부르	-5553
▁사상	-5554
▁손발	-5555
▁엽기	-5556
▁우연	-5557
▁읽어	-5558
▁잠을	-5559
▁잼나	-5560
▁정준	-5561
▁정확	-5562
▁클래	-5563
▁탈출	-5564
▁폐지	-5565
▁프리	-5566
▁피터	-5567
간만에	-5568
라는게	-5569
매이션	-5570
에게는	-5571
점준것	-5572
지말고	-5573
했을까	-5574
▁결말을	-5575
▁남는게	-5576
▁돈내고	-5577
▁명작은	-5578
▁몰랐다	-5579
▁뭐하는	-5580
▁봅니다	-5581
▁빛나는	-5582
▁실화를	-5583
▁싶었다	-5584
▁아진짜	-5585
▁이상해	-5586
▁중요한	-5587
▁지금의	-5588
▁첨이다	-5589
▁친구랑	-5590
▁풋풋한	-5591
▁하다가	-5592
▁하이틴	-5593
▁했으면	-5594
도아니고	-5595
재미있다	-5596
▁답답하다	-5597
▁드라마중	-5598
▁본방사수	-5599
▁아니었다	-5600
▁이해불가	-5601
▁이해할수	-5602
▁장난하나	-5603
▁처음에는	-5604
▁소름끼치는	-5605
!!!!!!!	-5606
▁로맨틱코미디	-5607
▁재밌게봤어요	-5608
,3	-5609
.6	-5610
_^	-5611
nd	-5612
▁H	-5613
▁ᄂ	-5614
▁곧	-5615
▁땀	-5616
▁람	-5617
▁헌	-5618
께요	-5619
다르	-5620
들여	-5621
력을	-5622
렸네	-5623
뭐지	-5624
번을	-5625
부를	-5626
빠져	-5627
었냐	-5628
우스	-5629
인건	-5630
지민	-5631
진창	-5632
켓몬	-5633
태현	-5634
허무	-5635
▁가고	-5636
▁독일	-5637
▁동양	-5638
▁마약	-5639
▁머야	-5640
▁모욕	-5641
▁몰라	-5642
▁받은	-5643
▁보구	-5644
▁보단	-5645
▁부담	-5646
▁선물	-5647
▁아예	-5648
▁애국	-5649
▁잠들	-5650
▁주변	-5651
▁첨엔	-5652
▁파격	-5653
▁판단	-5654
거같음	-5655
뻔했다	-5656
생각이	-5657
였으면	-5658
왔는데	-5659
재미가	-5660
점에서	-5661
지루해	-5662
프리오	-5663
ovie	-5664
ᅮᅮᅮᅮ	-5665
▁가장한	-5666
▁기발한	-5667
▁깔끔한	-5668
▁나네요	-5669
▁내용에	-5670
▁대부분	-5671
▁떨어짐	-5672
▁라이언	-5673
▁명복을	-5674
▁모른다	-5675
▁생각나	-5676
▁설정이	-5677
▁심하다	-5678
▁액션의	-5679
▁이제는	-5680
▁이해를	-5681
▁적절한	-5682
▁제목을	-5683
▁조잡한	-5684
▁좋더라	-5685
▁컴퓨터	-5686
▁혹시나	-5687
▁홍상수	-5688
공포영화	-5689
너무너무	-5690
지도않고	-5691
▁갠적으로	-5692
▁대박이다	-5693
▁독특하고	-5694
▁모르겠네	-5695
▁목소리가	-5696
▁무엇인가	-5697
▁바랍니다	-5698
▁슬픈영화	-5699
▁시리즈의	-5700
▁알파치노	-5701
▁왔습니다	-5702
▁유치찬란	-5703
▁유쾌하게	-5704
▁강추합니다	-5705
▁보고싶은데	-5706
▁사랑스럽다	-5707
▁♥	-5708
▁곰	-5709
▁앨	-5710
▁잉	-5711
▁햇	-5712
더군	-5713
든지	-5714
리나	-5715
리면	-5716
보긴	-5717
보소	-5718
빼곤	-5719
슨이	-5720
시기	-5721
시의	-5722
여주	-5723
은듯	-5724
의를	-5725
이군	-5726
이뻐	-5727
이죠	-5728
인게	-5729
주기	-5730
주면	-5731
진않	-5732
함께	-5733
희가	-5734
▁of	-5735
▁남기	-5736
▁담담	-5737
▁두려	-5738
▁무너	-5739
▁배급	-5740
▁부탁	-5741
▁빛을	-5742
▁상큼	-5743
▁스피	-5744
▁쓰고	-5745
▁아아	-5746
▁앞뒤	-5747
▁어떨	-5748
▁완젼	-5749
▁완죤	-5750
▁자본	-5751
▁자세	-5752
▁주온	-5753
▁짜리	-5754
▁치유	-5755
▁트랜	-5756
▁판타	-5757
▁평화	-5758
▁한명	-5759
▁확인	-5760
▁흔들	-5761
▁힘을	-5762
나오고	-5763
되는데	-5764
발연기	-5765
분짜리	-5766
야한다	-5767
인영화	-5768
있을까	-5769
재밋음	-5770
코메디	-5771
▁가득한	-5772
▁꼭봐야	-5773
▁마시길	-5774
▁만든거	-5775
▁멋있고	-5776
▁못봐주	-5777
▁무서움	-5778
▁미국의	-5779
▁보게된	-5780
▁보겠다	-5781
▁빨갱이	-5782
▁성룡의	-5783
▁어디에	-5784
▁없으면	-5785
▁웃겼다	-5786
▁있는지	-5787
▁자체는	-5788
▁잘생겼	-5789
▁장난치	-5790
▁케릭터	-5791
재밋어요	-5792
▁기억난다	-5793
▁돈아까워	-5794
▁말그대로	-5795
▁모든것이	-5796
▁배경음악	-5797
▁별로였다	-5798
▁쓰레기는	-5799
▁아이들의	-5800
▁아이디어	-5801
▁생각했는데	-5802
.8	-5803
ig	-5804
▁x	-5805
▁널	-5806
▁땅	-5807
가장	-5808
겠어	-5809
늦게	-5810
르네	-5811
버츠	-5812
본색	-5813
사와	-5814
어스	-5815
오늘	-5816
이요	-5817
잇는	-5818
잡을	-5819
잼있	-5820
전혀	-5821
진이	-5822
펙트	-5823
함도	-5824
ᄃᄃᄃ	-5825
▁기타	-5826
▁꽤나	-5827
▁낭만	-5828
▁높지	-5829
▁단어	-5830
▁담긴	-5831
▁망할	-5832
▁무겁	-5833
▁보던	-5834
▁본것	-5835
▁브라	-5836
▁쏟아	-5837
▁아내	-5838
▁엑소	-5839
▁역작	-5840
▁우왕	-5841
▁이렇	-5842
▁이쁨	-5843
▁이준	-5844
▁절제	-5845
▁조아	-5846
▁죄송	-5847
▁짬뽕	-5848
▁태국	-5849
▁한가	-5850
겠다는	-5851
도대체	-5852
들끼리	-5853
리스트	-5854
배우의	-5855
보다도	-5856
빕니다	-5857
엇어요	-5858
점이나	-5859
줬으면	-5860
할수가	-5861
▁게다가	-5862
▁디테일	-5863
▁무거운	-5864
▁뭐라고	-5865
▁별점이	-5866
▁분들은	-5867
▁신하균	-5868
▁오프닝	-5869
▁왕조현	-5870
▁외계인	-5871
▁이상은	-5872
▁자동차	-5873
▁잘하는	-5874
▁정도가	-5875
▁짱이다	-5876
▁친구가	-5877
▁현실이	-5878
재미없어	-5879
카프리오	-5880
▁그렇지만	-5881
▁둘째치고	-5882
▁떨어지고	-5883
▁쓸데없이	-5884
▁아쉬움이	-5885
▁안나온다	-5886
▁어색하고	-5887
▁어이없음	-5888
▁이거보단	-5889
▁이것보단	-5890
▁인생영화	-5891
▁재미있을	-5892
▁좀비영화	-5893
▁주인공들	-5894
▁짜증나고	-5895
▁파워레인	-5896
▁영화보다가	-5897
▁r	-5898
▁갱	-5899
▁띄	-5900
▁쪼	-5901
▁찢	-5902
▁콘	-5903
가위	-5904
개인	-5905
광고	-5906
구먼	-5907
까요	-5908
둥이	-5909
뚱맞	-5910
라에	-5911
리며	-5912
리한	-5913
마르	-5914
미의	-5915
박죽	-5916
밖엔	-5917
부지	-5918
살인	-5919
상한	-5920
성우	-5921
시가	-5922
식은	-5923
안타	-5924
예술	-5925
일러	-5926
전이	-5927
지면	-5928
치의	-5929
판이	-5930
패스	-5931
한가	-5932
향을	-5933
~10	-5934
▁간지	-5935
▁개똥	-5936
▁능가	-5937
▁담은	-5938
▁대화	-5939
▁먹칠	-5940
▁목숨	-5941
▁뭐고	-5942
▁뮤직	-5943
▁별거	-5944
▁본격	-5945
▁시키	-5946
▁아파	-5947
▁앞에	-5948
▁어둡	-5949
▁예측	-5950
▁위트	-5951
▁졸업	-5952
▁짜릿	-5953
▁첩보	-5954
▁최소	-5955
▁추리	-5956
▁토니	-5957
▁틀어	-5958
▁한방	-5959
게하는	-5960
기까지	-5961
모르고	-5962
솔직히	-5963
없었다	-5964
으려고	-5965
으로는	-5966
자들의	-5967
적으론	-5968
점이상	-5969
죽박죽	-5970
한테는	-5971
▁교훈도	-5972
▁놀랐다	-5973
▁생각할	-5974
▁세상이	-5975
▁수면제	-5976
▁안보면	-5977
▁애니는	-5978
▁여주가	-5979
▁역사를	-5980
▁원주율	-5981
▁일본의	-5982
▁자신을	-5983
▁자신이	-5984
▁피해자	-5985
▁헛웃음	-5986
▁후하게	-5987
말이필요	-5988
이런영화	-5989
..-_-	-5990
▁감동적임	-5991
▁뭐하자는	-5992
▁아깝네요	-5993
▁인상적인	-5994
▁있었는데	-5995
▁있었으면	-5996
▁지루함의	-5997
▁충분하다	-5998
▁캐릭터들	-5999
▁환상적인	-6000
▁.....	-6001
▁재미없다고	-6002
▁감동적입니다	-6003
▁재미있었는데	-6004
▁재밌었습니다	-6005
19	-6006
am	-6007
ay	-6008
▁V	-6009
▁앙	-6010
▁웅	-6011
▁폰	-6012
▁폼	-6013
▁품	-6014
도의	-6015
병맛	-6016
비추	-6017
비해	-6018
순이	-6019
스틴	-6020
시지	-6021
안돼	-6022
인에	-6023
저냥	-6024
중이	-6025
행복	-6026
~~!	-6027
▁격투	-6028
▁극혐	-6029
▁껐다	-6030
▁끝을	-6031
▁대결	-6032
▁레옹	-6033
▁맞춰	-6034
▁민폐	-6035
▁부활	-6036
▁빠른	-6037
▁삶이	-6038
▁새로	-6039
▁아버	-6040
▁안남	-6041
▁열자	-6042
▁예능	-6043
▁장동	-6044
▁재앙	-6045
▁죽어	-6046
▁파괴	-6047
는데도	-6048
심으로	-6049
았으면	-6050
인들이	-6051
평점은	-6052
하니까	-6053
..!!	-6054
▁EBS	-6055
▁감독과	-6056
▁결론은	-6057
▁그것도	-6058
▁그만큼	-6059
▁느낌은	-6060
▁됩니다	-6061
▁만들다	-6062
▁명장면	-6063
▁배우는	-6064
▁비호감	-6065
▁살인마	-6066
▁시대에	-6067
▁싶다면	-6068
▁안맞는	-6069
▁않아요	-6070
▁약하다	-6071
▁에라이	-6072
▁역사상	-6073
▁연출은	-6074
▁영화나	-6075
▁영화만	-6076
▁유덕화	-6077
▁인상적	-6078
▁중학생	-6079
▁찾아서	-6080
▁피아노	-6081
▁흥미를	-6082
거같은데	-6083
보지마라	-6084
하고싶다	-6085
▁살아가는	-6086
▁아니라고	-6087
▁엄청나게	-6088
▁이상하고	-6089
▁최고라고	-6090
▁충격적이	-6091
▁필요없음	-6092
▁미스캐스팅	-6093
▁생각해보게	-6094
▁시간때우기	-6095
CG	-6096
ck	-6097
▁곤	-6098
▁뭣	-6099
▁석	-6100
▁을	-6101
▁쿨	-6102
같네	-6103
겠죠	-6104
낫다	-6105
느끼	-6106
도로	-6107
되게	-6108
드먼	-6109
때가	-6110
미국	-6111
바타	-6112
받는	-6113
보구	-6114
본게	-6115
상황	-6116
원은	-6117
유발	-6118
있냐	-6119
자연	-6120
잘생	-6121
저리	-6122
집에	-6123
추는	-6124
추어	-6125
트릭	-6126
▁개잼	-6127
▁공중	-6128
▁깨알	-6129
▁녹아	-6130
▁배신	-6131
▁벗어	-6132
▁베이	-6133
▁봤나	-6134
▁사고	-6135
▁섬뜩	-6136
▁신고	-6137
▁안된	-6138
▁암걸	-6139
▁오로	-6140
▁읽고	-6141
▁있던	-6142
▁저급	-6143
▁절정	-6144
▁콜린	-6145
▁풍자	-6146
▁한쿡	-6147
▁호구	-6148
거리가	-6149
기영화	-6150
까지만	-6151
납니다	-6152
덩어리	-6153
라이즈	-6154
없는데	-6155
있으면	-6156
재밌고	-6157
졌어요	-6158
종일관	-6159
필버그	-6160
하고는	-6161
하지말	-6162
해야지	-6163
▁가족이	-6164
▁나을듯	-6165
▁낫겠다	-6166
▁누군가	-6167
▁대통령	-6168
▁많은데	-6169
▁매력적	-6170
▁무언가	-6171
▁보라고	-6172
▁보아도	-6173
▁보았던	-6174
▁볼려고	-6175
▁불가능	-6176
▁빕니다	-6177
▁세월이	-6178
▁시간도	-6179
▁싸우는	-6180
▁아이고	-6181
▁안무섭	-6182
▁웃긴다	-6183
▁의도가	-6184
▁의도는	-6185
▁잼나요	-6186
▁잼없다	-6187
감동적이	-6188
시간동안	-6189
지마세요	-6190
...;;	-6191
▁거지같은	-6192
▁괜찮았던	-6193
▁기대했던	-6194
▁나머지는	-6195
▁드라마다	-6196
▁멋진영화	-6197
▁야하지도	-6198
▁재미나게	-6199
▁재밋네요	-6200
▁전체적인	-6201
▁지루함을	-6202
▁진지하게	-6203
▁추천하고	-6204
▁애니매이션	-6205
TV	-6206
▁겪	-6207
▁맴	-6208
▁붕	-6209
▁습	-6210
▁썰	-6211
▁얄	-6212
▁쫄	-6213
▁칠	-6214
▁쾌	-6215
▁팍	-6216
▁획	-6217
것에	-6218
경이	-6219
됐다	-6220
땜시	-6221
래도	-6222
미를	-6223
부로	-6224
분한	-6225
비슷	-6226
상실	-6227
스턴	-6228
시면	-6229
았고	-6230
열자	-6231
영은	-6232
영의	-6233
이형	-6234
있지	-6235
조연	-6236
줬다	-6237
질질	-6238
할지	-6239
힘들	-6240
▁is	-6241
▁가히	-6242
▁갖다	-6243
▁국산	-6244
▁기괴	-6245
▁기획	-6246
▁끝도	-6247
▁다루	-6248
▁듣고	-6249
▁마리	-6250
▁먹는	-6251
▁박평	-6252
▁부산	-6253
▁숨막	-6254
▁애틋	-6255
▁여고	-6256
▁오지	-6257
▁요새	-6258
▁이나	-6259
▁졸리	-6260
▁킬러	-6261
건가요	-6262
습니까	-6263
죽는줄	-6264
포인트	-6265
한마디	-6266
할만한	-6267
▁공짜로	-6268
▁공포는	-6269
▁기대안	-6270
▁기대한	-6271
▁기대했	-6272
▁김수현	-6273
▁김희선	-6274
▁당신의	-6275
▁더빙이	-6276
▁되네요	-6277
▁때마다	-6278
▁또봐도	-6279
▁류승범	-6280
▁말인가	-6281
▁미국식	-6282
▁보는것	-6283
▁보시면	-6284
▁살리지	-6285
▁선생님	-6286
▁소재의	-6287
▁수많은	-6288
▁안봐서	-6289
▁이딴게	-6290
▁이미지	-6291
▁인간은	-6292
▁잘못된	-6293
▁잘보고	-6294
▁한번도	-6295
지루하다	-6296
▁너무하네	-6297
▁드라마의	-6298
▁만들어낸	-6299
▁만들었냐	-6300
▁볼만한데	-6301
▁시종일관	-6302
▁언제까지	-6303
▁엉망진창	-6304
▁여러모로	-6305
▁초등학교	-6306
▁평점조절	-6307
▁movie	-6308
▁다운받아서	-6309
▁마지막까지	-6310
▁하나하나가	-6311
!~	-6312
ed	-6313
et	-6314
le	-6315
▁쌩	-6316
▁찐	-6317
★★	-6318
각본	-6319
개의	-6320
답다	-6321
도를	-6322
만듬	-6323
봣다	-6324
서도	-6325
순수	-6326
였나	-6327
지나	-6328
질이	-6329
타쿠	-6330
트라	-6331
하늘	-6332
▁th	-6333
▁고어	-6334
▁나무	-6335
▁누나	-6336
▁된장	-6337
▁맞나	-6338
▁머냐	-6339
▁모방	-6340
▁묘한	-6341
▁보내	-6342
▁삶은	-6343
▁새록	-6344
▁수록	-6345
▁쓰는	-6346
▁예뻤	-6347
▁원숭	-6348
▁이승	-6349
▁일이	-6350
▁정작	-6351
▁졸잼	-6352
▁줄수	-6353
▁컬트	-6354
▁한효	-6355
▁혐오	-6356
▁황정	-6357
러티브	-6358
인들의	-6359
치고는	-6360
평론가	-6361
▁가까운	-6362
▁낮은지	-6363
▁다르게	-6364
▁데이빗	-6365
▁만들수	-6366
▁문제가	-6367
▁밋밋한	-6368
▁박보영	-6369
▁빠지는	-6370
▁사람도	-6371
▁섬세한	-6372
▁시간은	-6373
▁아놀드	-6374
▁않았던	-6375
▁영상은	-6376
▁이딴거	-6377
▁이루어	-6378
▁인생이	-6379
▁제목에	-6380
▁조금은	-6381
▁줄이야	-6382
▁진지한	-6383
▁찾아볼	-6384
▁포켓몬	-6385
▁하하하	-6386
이라는게	-6387
▁감정이입	-6388
▁그냥저냥	-6389
▁니콜라스	-6390
▁마지막엔	-6391
▁쓰레기네	-6392
▁아니잖아	-6393
▁영웅본색	-6394
▁이거보다	-6395
▁이도저도	-6396
▁잘하네요	-6397
▁캐스팅이	-6398
▁트랜스포	-6399
▁한심하다	-6400
▁할아버지	-6401
아까운영화	-6402
점도아깝다	-6403
▁-_-;;	-6404
▁마지막장면	-6405
▁뻔한스토리	-6406
▁오그라드는	-6407
▁전반적으로	-6408
▁좋아하네요	-6409
▁캐릭터들이	-6410
.............	-6411
cn	-6412
vs	-6413
▁땐	-6414
▁삽	-6415
▁쏠	-6416
▁쭉	-6417
▁헉	-6418
개를	-6419
그럼	-6420
그저	-6421
님들	-6422
되나	-6423
랑은	-6424
마리	-6425
마자	-6426
먹을	-6427
멋진	-6428
면이	-6429
모를	-6430
모양	-6431
배는	-6432
범죄	-6433
별루	-6434
새록	-6435
석규	-6436
선을	-6437
센스	-6438
신기	-6439
신선	-6440
심에	-6441
써요	-6442
예쁘	-6443
움을	-6444
워드	-6445
잔인	-6446
장을	-6447
지섭	-6448
체적	-6449
치도	-6450
크로	-6451
플린	-6452
흥미	-6453
▁16	-6454
▁ᅲᅮ	-6455
▁것에	-6456
▁난무	-6457
▁놀랐	-6458
▁농담	-6459
▁높네	-6460
▁마니	-6461
▁마블	-6462
▁만세	-6463
▁모니	-6464
▁미학	-6465
▁밑도	-6466
▁봤지	-6467
▁브래	-6468
▁센스	-6469
▁소소	-6470
▁숨은	-6471
▁엉뚱	-6472
▁에드	-6473
▁오직	-6474
▁월드	-6475
▁이뻤	-6476
▁인종	-6477
▁인해	-6478
▁절로	-6479
▁짱임	-6480
▁쩌는	-6481
▁차승	-6482
같아서	-6483
년대에	-6484
들만의	-6485
시대에	-6486
영화냐	-6487
편까지	-6488
하나요	-6489
했다가	-6490
▁감독도	-6491
▁개봉한	-6492
▁공포도	-6493
▁그려낸	-6494
▁그리워	-6495
▁내용의	-6496
▁내취향	-6497
▁보기가	-6498
▁비쥬얼	-6499
▁사실을	-6500
▁아련한	-6501
▁어거지	-6502
▁연기만	-6503
▁영상도	-6504
▁왕가위	-6505
▁웃겨서	-6506
▁표현할	-6507
▁한시간	-6508
없습니다	-6509
재미있음	-6510
킬링타임	-6511
하고싶은	-6512
▁OOOO	-6513
▁느낌이다	-6514
▁뒤죽박죽	-6515
▁리얼리티	-6516
▁별로네요	-6517
▁불쌍해서	-6518
▁않았지만	-6519
▁여배우가	-6520
▁오랫동안	-6521
▁잊지못할	-6522
▁자극적인	-6523
▁정신병자	-6524
▁캐스팅은	-6525
▁탄탄하고	-6526
▁디카프리오	-6527
▁사람이라면	-6528
▁사랑스럽고	-6529
▁영화라지만	-6530
ᅲᅲᅲᅲᅲᅲᅲᅲ	-6531
▁ᄏᄏᄏᄏᄏᄏᄏᄏᄏ	-6532
->	-6533
▁u	-6534
▁ᄊ	-6535
▁덴	-6536
▁듬	-6537
같고	-6538
겟네	-6539
깊은	-6540
더맨	-6541
란한	-6542
먹은	-6543
면증	-6544
못한	-6545
미스	-6546
믿고	-6547
살때	-6548
서방	-6549
수선	-6550
스케	-6551
승우	-6552
실히	-6553
쓰는	-6554
아지	-6555
왕국	-6556
위에	-6557
유리	-6558
잡는	-6559
좀비	-6560
중반	-6561
채널	-6562
충격	-6563
티가	-6564
▁것만	-6565
▁고뇌	-6566
▁공간	-6567
▁공유	-6568
▁관련	-6569
▁극단	-6570
▁끝에	-6571
▁난리	-6572
▁노무	-6573
▁데스	-6574
▁들고	-6575
▁따스	-6576
▁마틴	-6577
▁무식	-6578
▁서양	-6579
▁손꼽	-6580
▁쉽지	-6581
▁안좋	-6582
▁어리	-6583
▁역쉬	-6584
▁요리	-6585
▁웃을	-6586
▁위험	-6587
▁유행	-6588
▁음식	-6589
▁이동	-6590
▁이자	-6591
▁이탈	-6592
▁있냐	-6593
▁잊고	-6594
▁지독	-6595
▁지옥	-6596
▁차이	-6597
▁하여	-6598
▁하자	-6599
▁호흡	-6600
봣어요	-6601
애들은	-6602
이었던	-6603
있지만	-6604
제대로	-6605
좋겠다	-6606
창있네	-6607
탕으로	-6608
▁구성도	-6609
▁군더더	-6610
▁나루토	-6611
▁나이가	-6612
▁난해한	-6613
▁동영상	-6614
▁명작임	-6615
▁못하네	-6616
▁살렸다	-6617
▁슈퍼맨	-6618
▁아무나	-6619
▁아이유	-6620
▁안어울	-6621
▁웃다가	-6622
▁웃음을	-6623
▁인터넷	-6624
▁장면도	-6625
▁재밌당	-6626
▁전라도	-6627
▁제목은	-6628
▁충분한	-6629
▁티비로	-6630
▁하정우	-6631
오랜만에	-6632
으면서도	-6633
▁궁금해서	-6634
▁돌아보게	-6635
▁두고두고	-6636
▁마무리가	-6637
▁마지막회	-6638
▁사랑하고	-6639
▁소장하고	-6640
▁슬프네요	-6641
▁시작부터	-6642
▁아기자기	-6643
▁아버지의	-6644
▁연기력에	-6645
▁연출력이	-6646
▁영화라서	-6647
▁이것보다	-6648
▁이런것도	-6649
▁재미있네	-6650
▁정말정말	-6651
애니메이션	-6652
최고의영화	-6653
...-_-	-6654
▁다세포소녀	-6655
▁보고싶네요	-6656
▁좋았을텐데	-6657
ᄏᄏᄏᄏᄏᄏᄏᄏᄏ	-6658
▁킬링타임용으로도	-6659
im	-6660
▁ᄃ	-6661
▁옴	-6662
▁젖	-6663
▁탓	-6664
▁핸	-6665
구역	-6666
끝나	-6667
녀석	-6668
녀의	-6669
는뎅	-6670
대기	-6671
되요	-6672
또한	-6673
롭다	-6674
리쉬	-6675
리즘	-6676
받을	-6677
버튼	-6678
베이	-6679
봤지	-6680
비에	-6681
사에	-6682
셔야	-6683
주제	-6684
즈가	-6685
지에	-6686
트는	-6687
프리	-6688
혜선	-6689
홧팅	-6690
희의	-6691
▁건질	-6692
▁골때	-6693
▁극복	-6694
▁꺼져	-6695
▁끌고	-6696
▁늙은	-6697
▁단체	-6698
▁담겨	-6699
▁도둑	-6700
▁드라	-6701
▁때가	-6702
▁리암	-6703
▁말아	-6704
▁메이	-6705
▁무간	-6706
▁박찬	-6707
▁받고	-6708
▁변화	-6709
▁성의	-6710
▁소년	-6711
▁스토	-6712
▁신의	-6713
▁왠만	-6714
▁이성	-6715
▁있긴	-6716
▁정석	-6717
▁조차	-6718
▁좋앗	-6719
▁질리	-6720
▁집어	-6721
▁찍고	-6722
▁찬양	-6723
▁팝콘	-6724
▁한예	-6725
▁호불	-6726
▁흉내	-6727
같아요	-6728
겠는데	-6729
고싶어	-6730
는거지	-6731
아이가	-6732
었다고	-6733
옵니다	-6734
자들이	-6735
하구만	-6736
햇는데	-6737
했다면	-6738
..,,	-6739
very	-6740
▁것인가	-6741
▁굿굿굿	-6742
▁멋지게	-6743
▁명배우	-6744
▁명연기	-6745
▁미소가	-6746
▁배경이	-6747
▁빈약한	-6748
▁설득력	-6749
▁수준을	-6750
▁실제로	-6751
▁아이언	-6752
▁알바가	-6753
▁왠만한	-6754
▁유치원	-6755
▁이하도	-6756
▁전개와	-6757
▁전편의	-6758
▁정도는	-6759
▁좋다고	-6760
▁진실을	-6761
▁차태현	-6762
▁책으로	-6763
▁첨부터	-6764
▁한석규	-6765
▁한순간	-6766
기도하고	-6767
만큼이나	-6768
아름다운	-6769
여주인공	-6770
▁또보고싶	-6771
▁마지막은	-6772
▁분위기는	-6773
▁아쉬워요	-6774
▁완벽하다	-6775
▁이야기의	-6776
▁이영화의	-6777
▁지루하기	-6778
▁지루하네	-6779
▁최고인듯	-6780
잘봤습니다	-6781
▁매력적이다	-6782
▁모르겠네요	-6783
;;;;;;;;	-6784
!?	-6785
.7	-6786
:)	-6787
ᅮᅲ	-6788
▁뻥	-6789
갈때	-6790
감과	-6791
거워	-6792
경구	-6793
돌이	-6794
럽지	-6795
리트	-6796
말을	-6797
민이	-6798
봤네	-6799
비아	-6800
소가	-6801
수작	-6802
씨는	-6803
어를	-6804
옛날	-6805
제일	-6806
줘요	-6807
집어	-6808
치다	-6809
탈출	-6810
프레	-6811
하디	-6812
하리	-6813
하실	-6814
호의	-6815
..;	-6816
▁거야	-6817
▁고독	-6818
▁그건	-6819
▁그는	-6820
▁김지	-6821
▁니가	-6822
▁당할	-6823
▁머릿	-6824
▁버린	-6825
▁보소	-6826
▁생겼	-6827
▁샤론	-6828
▁선사	-6829
▁선정	-6830
▁에서	-6831
▁오오	-6832
▁유승	-6833
▁이지	-6834
▁자아	-6835
▁잼씀	-6836
▁점이	-6837
▁존잼	-6838
▁지극	-6839
▁쿵푸	-6840
▁토할	-6841
▁피곤	-6842
그렇게	-6843
는거냐	-6844
듭니다	-6845
새끼들	-6846
생각을	-6847
시키지	-6848
▁가치도	-6849
▁개그맨	-6850
▁고양이	-6851
▁그럴듯	-6852
▁그이상	-6853
▁나올까	-6854
▁나올때	-6855
▁남기는	-6856
▁내시간	-6857
▁다니엘	-6858
▁뒤늦게	-6859
▁말아야	-6860
▁무섭지	-6861
▁무의미	-6862
▁믿기지	-6863
▁불쌍해	-6864
▁싶었던	-6865
▁아이디	-6866
▁안나옴	-6867
▁알바생	-6868
▁액션만	-6869
▁어두운	-6870
▁어설퍼	-6871
▁역겹다	-6872
▁영화적	-6873
▁우울한	-6874
▁음악은	-6875
▁재미만	-6876
▁절대로	-6877
▁정신이	-6878
▁최고인	-6879
▁테이큰	-6880
▁현실과	-6881
▁화끈한	-6882
▁2012	-6883
▁개봉당시	-6884
▁말았어야	-6885
▁보고나니	-6886
▁보는동안	-6887
▁쓰레기를	-6888
▁알려주는	-6889
▁제대로된	-6890
▁현실적이	-6891
▁훈훈하고	-6892
▁아깝습니다	-6893
▁재미없었음	-6894
▁......	-6895
▁재밌게봤는데	-6896
50	-6897
▁객	-6898
▁걷	-6899
▁는	-6900
▁닭	-6901
▁똘	-6902
▁뚝	-6903
▁빙	-6904
▁족	-6905
감사	-6906
건강	-6907
관을	-6908
구리	-6909
놈이	-6910
덕에	-6911
돈이	-6912
돌려	-6913
드네	-6914
릴때	-6915
미화	-6916
바람	-6917
버전	-6918
보러	-6919
뽕짝	-6920
세상	-6921
스와	-6922
승헌	-6923
쓰고	-6924
어설	-6925
얼마	-6926
였고	-6927
였지	-6928
요미	-6929
으신	-6930
이프	-6931
있던	-6932
자도	-6933
장애	-6934
중국	-6935
치지	-6936
케이	-6937
펭귄	-6938
호러	-6939
ove	-6940
▁가라	-6941
▁기존	-6942
▁길다	-6943
▁깜놀	-6944
▁끝은	-6945
▁끼워	-6946
▁나비	-6947
▁났다	-6948
▁내일	-6949
▁니네	-6950
▁담아	-6951
▁대신	-6952
▁돼지	-6953
▁뒤에	-6954
▁따듯	-6955
▁람보	-6956
▁로멘	-6957
▁마법	-6958
▁만난	-6959
▁말은	-6960
▁모독	-6961
▁모아	-6962
▁받는	-6963
▁새삼	-6964
▁생긴	-6965
▁소유	-6966
▁소통	-6967
▁소화	-6968
▁안다	-6969
▁없었	-6970
▁역량	-6971
▁였다	-6972
▁원표	-6973
▁조지	-6974
▁참을	-6975
▁창피	-6976
▁칭찬	-6977
▁혁명	-6978
나라는	-6979
보시길	-6980
샌들러	-6981
슬프다	-6982
왜이래	-6983
재미는	-6984
짜증나	-6985
학년때	-6986
했을때	-6987
▁가능한	-6988
▁강동원	-6989
▁공감도	-6990
▁다이하	-6991
▁더러워	-6992
▁데뷔작	-6993
▁박진감	-6994
▁버리고	-6995
▁보고난	-6996
▁스릴이	-6997
▁슬펐다	-6998
▁아바타	-6999
▁안좋아	-7000
▁어쩌면	-7001
▁영화란	-7002
▁이것은	-7003
▁이해못	-7004
▁임창정	-7005
▁재발견	-7006
▁적당한	-7007
▁정우성	-7008
▁주세요	-7009
▁찬사를	-7010
▁첫번째	-7011
▁편견을	-7012
▁하다니	-7013
▁흉내내	-7014
다시봐도	-7015
영화였다	-7016
재밌네요	-7017
▁돈아깝다	-7018
▁드래곤볼	-7019
▁만화영화	-7020
▁모르지만	-7021
▁못하겠다	-7022
▁식상하다	-7023
▁재밋는데	-7024
▁주고싶다	-7025
▁지금보면	-7026
▁진부하다	-7027
▁처음이네	-7028
▁크리스찬	-7029
▁아이들에게	-7030
▁트랜스포머	-7031
▁드라마입니다	-7032
▁잔잔하면서도	-7033
BC	-7034
il	-7035
▁Y	-7036
▁♡	-7037
▁삐	-7038
▁짙	-7039
▁핑	-7040
가라	-7041
간지	-7042
간히	-7043
감한	-7044
개념	-7045
구가	-7046
끝내	-7047
놈의	-7048
데렐	-7049
되네	-7050
들린	-7051
랬다	-7052
말도	-7053
명화	-7054
상과	-7055
승전	-7056
아리	-7057
팬이	-7058
▁to	-7059
▁가짜	-7060
▁강간	-7061
▁고소	-7062
▁공룡	-7063
▁과정	-7064
▁기적	-7065
▁낚인	-7066
▁록키	-7067
▁민주	-7068
▁바닥	-7069
▁반갑	-7070
▁보석	-7071
▁볼까	-7072
▁삭제	-7073
▁삶과	-7074
▁시험	-7075
▁신은	-7076
▁신인	-7077
▁신화	-7078
▁씨발	-7079
▁안들	-7080
▁어쨌	-7081
▁왔다	-7082
▁운명	-7083
▁음모	-7084
▁잃은	-7085
▁재방	-7086
▁재치	-7087
▁좋지	-7088
▁준비	-7089
▁찾을	-7090
▁혹시	-7091
감독은	-7092
결말이	-7093
나이트	-7094
눈물이	-7095
더럽게	-7096
라고요	-7097
라에몽	-7098
보네요	-7099
볼만한	-7100
손가락	-7101
습니당	-7102
아니면	-7103
아닌가	-7104
였구나	-7105
이후로	-7106
인지도	-7107
주는데	-7108
크루즈	-7109
편에서	-7110
하기엔	-7111
하잖아	-7112
ᄃᄃᄃᄃ	-7113
▁8.5	-7114
▁가족과	-7115
▁가족을	-7116
▁거기에	-7117
▁그것이	-7118
▁그동안	-7119
▁눈으로	-7120
▁박찬욱	-7121
▁반전의	-7122
▁보는거	-7123
▁뻔하다	-7124
▁송승헌	-7125
▁아니네	-7126
▁액션씬	-7127
▁어디가	-7128
▁없구나	-7129
▁없을까	-7130
▁에로물	-7131
▁왜만들	-7132
▁웃음만	-7133
▁일주일	-7134
▁있었음	-7135
▁장르를	-7136
▁장면만	-7137
▁잼없음	-7138
▁전개는	-7139
▁조금만	-7140
▁줄리아	-7141
▁지극히	-7142
▁했어요	-7143
▁했으나	-7144
것같네요	-7145
드라마가	-7146
점주기도	-7147
▁긴장감을	-7148
▁동화같은	-7149
▁배우들을	-7150
▁보게되는	-7151
▁볼만해요	-7152
▁세상에서	-7153
▁소피마르	-7154
▁스필버그	-7155
▁심각하게	-7156
▁아까워서	-7157
▁억지스런	-7158
▁이상하다	-7159
▁재밌게봤	-7160
▁재밌기만	-7161
▁좋아해요	-7162
▁지금이나	-7163
▁캐릭터는	-7164
▁코미디는	-7165
▁코믹영화	-7166
▁필요하다	-7167
▁형편없는	-7168
보지마세요	-7169
▁명작이네요	-7170
▁사람들에게	-7171
▁일본영화는	-7172
▁잔잔하지만	-7173
▁재미있었던	-7174
▁존경합니다	-7175
▁프랑스영화	-7176
▁감동적이었다	-7177
./	-7178
.^	-7179
ce	-7180
dd	-7181
▁껏	-7182
▁둔	-7183
▁롤	-7184
▁맑	-7185
▁앵	-7186
▁찜	-7187
▁협	-7188
가운	-7189
걸작	-7190
경찰	-7191
답게	-7192
라지	-7193
리자	-7194
망작	-7195
물론	-7196
미안	-7197
미친	-7198
바보	-7199
베리	-7200
부의	-7201
브리	-7202
사님	-7203
사실	-7204
삼류	-7205
수다	-7206
슬퍼	-7207
신도	-7208
심한	-7209
아냐	-7210
아의	-7211
알고	-7212
았어	-7213
은거	-7214
전을	-7215
좋게	-7216
주행	-7217
진희	-7218
질않	-7219
초에	-7220
타고	-7221
편과	-7222
현준	-7223
▁bb	-7224
▁고스	-7225
▁공연	-7226
▁과학	-7227
▁끝판	-7228
▁노튼	-7229
▁놀래	-7230
▁동감	-7231
▁레오	-7232
▁많네	-7233
▁매주	-7234
▁머가	-7235
▁반도	-7236
▁불안	-7237
▁시체	-7238
▁아팠	-7239
▁안가	-7240
▁앞서	-7241
▁억울	-7242
▁엠마	-7243
▁영광	-7244
▁옛다	-7245
▁이별	-7246
▁이순	-7247
▁이종	-7248
▁일으	-7249
▁정상	-7250
▁제미	-7251
▁직업	-7252
▁징그	-7253
▁틀림	-7254
▁피식	-7255
▁하드	-7256
▁환경	-7257
▁후에	-7258
것인가	-7259
덕분에	-7260
돈주고	-7261
모르게	-7262
번이나	-7263
뿐이다	-7264
시네요	-7265
았네요	-7266
연기를	-7267
영화네	-7268
입니까	-7269
정도는	-7270
정도의	-7271
지말자	-7272
하거나	-7273
하구나	-7274
하기가	-7275
하는것	-7276
해지고	-7277
..??	-7278
▁7.5	-7279
▁같았다	-7280
▁개같은	-7281
▁결국은	-7282
▁공포를	-7283
▁구혜선	-7284
▁되는데	-7285
▁메세지	-7286
▁못만들	-7287
▁무엇이	-7288
▁미스테	-7289
▁별하나	-7290
▁부분도	-7291
▁분들이	-7292
▁생각도	-7293
▁설경구	-7294
▁세련된	-7295
▁손예진	-7296
▁송강호	-7297
▁안가는	-7298
▁안보는	-7299
▁양동근	-7300
▁엑스맨	-7301
▁역사에	-7302
▁오리지	-7303
▁웃음과	-7304
▁의미도	-7305
▁인간들	-7306
▁재밋고	-7307
▁전개에	-7308
▁주고싶	-7309
▁첨으로	-7310
▁최악임	-7311
▁추천해	-7312
▁편하게	-7313
▁하나는	-7314
▁한계를	-7315
▁한다는	-7316
▁한동안	-7317
▁한숨만	-7318
▁했더니	-7319
스러웠다	-7320
졌습니다	-7321
할수있는	-7322
▁고등학교	-7323
▁기대된다	-7324
▁나오네요	-7325
▁느껴졌다	-7326
▁빠져들게	-7327
▁새록새록	-7328
▁시리즈가	-7329
▁안나오는	-7330
▁영화같은	-7331
▁인디아나	-7332
▁공포영화가	-7333
▁공포영화는	-7334
▁보고싶어요	-7335
▁아직까지도	-7336
▁재미있어서	-7337
▁클레멘타인	-7338
▁너무재밌어요	-7339
!!!!!!!!!	-7340
34	-7341
cg	-7342
ᅩᅩ	-7343
▁ᄍ	-7344
▁닿	-7345
▁컷	-7346
▁퀴	-7347
▁털	-7348
간이	-7349
감정	-7350
거의	-7351
괴담	-7352
극의	-7353
근석	-7354
나간	-7355
더욱	-7356
도한	-7357
든가	-7358
디가	-7359
랄한	-7360
론의	-7361
물에	-7362
물은	-7363
선택	-7364
성과	-7365
성한	-7366
소장	-7367
스레	-7368
스텔	-7369
시네	-7370
시스	-7371
았나	-7372
에다	-7373
으러	-7374
의식	-7375
이긴	-7376
인걸	-7377
장에	-7378
점에	-7379
주지	-7380
줘도	-7381
지환	-7382
치를	-7383
향이	-7384
후에	-7385
▁17	-7386
▁간첩	-7387
▁갔다	-7388
▁그가	-7389
▁끝남	-7390
▁놀란	-7391
▁달려	-7392
▁도와	-7393
▁드문	-7394
▁러셀	-7395
▁로보	-7396
▁마초	-7397
▁맞추	-7398
▁모양	-7399
▁미술	-7400
▁보신	-7401
▁사과	-7402
▁실력	-7403
▁실사	-7404
▁어떠	-7405
▁없군	-7406
▁용기	-7407
▁재탕	-7408
▁조정	-7409
▁존내	-7410
▁죽고	-7411
▁증말	-7412
▁쯧쯧	-7413
▁캐리	-7414
▁타고	-7415
▁펼쳐	-7416
▁허나	-7417
▁흥분	-7418
가슴이	-7419
감동도	-7420
그자체	-7421
긴장감	-7422
너무잘	-7423
넘치는	-7424
니버스	-7425
드네요	-7426
라지만	-7427
목소리	-7428
별로다	-7429
아닌데	-7430
없지만	-7431
여자가	-7432
원에서	-7433
임에도	-7434
재미잇	-7435
편부터	-7436
하기는	-7437
oooo	-7438
▁관객이	-7439
▁그들이	-7440
▁너무낮	-7441
▁대표작	-7442
▁돌려줘	-7443
▁드림웍	-7444
▁들어가	-7445
▁레이첼	-7446
▁만들기	-7447
▁만화가	-7448
▁말았다	-7449
▁무서웠	-7450
▁보느니	-7451
▁보여줄	-7452
▁복수극	-7453
▁봤었다	-7454
▁빠지게	-7455
▁소재만	-7456
▁실망이	-7457
▁실패작	-7458
▁심지어	-7459
▁애니가	-7460
▁어수선	-7461
▁어중간	-7462
▁여기에	-7463
▁연기의	-7464
▁오우삼	-7465
▁윌리엄	-7466
▁일부러	-7467
▁장면을	-7468
▁재밋어	-7469
▁죽는다	-7470
▁짱짱맨	-7471
▁필요가	-7472
모르겠다	-7473
▁2015	-7474
▁과대평가	-7475
▁긴장감은	-7476
▁나오다니	-7477
▁남아있는	-7478
▁남자라면	-7479
▁다시보게	-7480
▁뛰어넘는	-7481
▁뜬금없는	-7482
▁쓰레기가	-7483
▁영화계의	-7484
▁영화제목	-7485
▁예고편만	-7486
▁오락영화	-7487
▁잔인하고	-7488
▁진짜진짜	-7489
▁처음본다	-7490
▁캐릭터도	-7491
▁코미디가	-7492
▁행복하게	-7493
▁허접하고	-7494
▁허접하다	-7495
▁다시봤는데	-7496
▁아쉬웠지만	-7497
▁재밌게봤음	-7498
▁좋겠습니다	-7499
15	-7500
><	-7501
ᄉᄇ	-7502
▁U	-7503
▁뚜	-7504
▁콤	-7505
▁탕	-7506
결국	-7507
계를	-7508
고도	-7509
곳에	-7510
공주	-7511
금보	-7512
내지	-7513
년을	-7514
놀이	-7515
니가	-7516
니의	-7517
님은	-7518
던거	-7519
도다	-7520
동화	-7521
때는	-7522
라곤	-7523
래요	-7524
러움	-7525
무엇	-7526
방식	-7527
보셈	-7528
살이	-7529
상욱	-7530
어른	-7531
어어	-7532
에이	-7533
외로	-7534
자꾸	-7535
자인	-7536
장의	-7537
조위	-7538
지효	-7539
차이	-7540
찾아	-7541
트로	-7542
하루	-7543
한텐	-7544
할것	-7545
효진	-7546
힘든	-7547
,..	-7548
▁25	-7549
▁ᄅᄋ	-7550
▁가정	-7551
▁고질	-7552
▁공허	-7553
▁구라	-7554
▁권상	-7555
▁남고	-7556
▁남긴	-7557
▁남의	-7558
▁대학	-7559
▁드물	-7560
▁듣기	-7561
▁떡밥	-7562
▁로마	-7563
▁만날	-7564
▁매끄	-7565
▁미니	-7566
▁반영	-7567
▁봤고	-7568
▁브로	-7569
▁비정	-7570
▁서스	-7571
▁서정	-7572
▁쏘우	-7573
▁않네	-7574
▁역겹	-7575
▁예쁨	-7576
▁우는	-7577
▁은은	-7578
▁잘해	-7579
▁적이	-7580
▁지경	-7581
▁태권	-7582
▁파고	-7583
▁하기	-7584
▁했나	-7585
▁허탈	-7586
▁흐지	-7587
갔는데	-7588
그래픽	-7589
그런지	-7590
기보단	-7591
라노말	-7592
마음이	-7593
보기엔	-7594
볼수록	-7595
아깝네	-7596
이없다	-7597
점준거	-7598
줘야지	-7599
판타지	-7600
편으로	-7601
하시길	-7602
했다고	-7603
...(	-7604
▁그럴싸	-7605
▁다시금	-7606
▁당시엔	-7607
▁돈으로	-7608
▁모습에	-7609
▁믿을게	-7610
▁볼수있	-7611
▁봤다는	-7612
▁불면증	-7613
▁비해서	-7614
▁사랑도	-7615
▁설명이	-7616
▁슬퍼요	-7617
▁심오한	-7618
▁아이와	-7619
▁영화속	-7620
▁요소가	-7621
▁웃겨요	-7622
▁웃기네	-7623
▁윌리스	-7624
▁이상함	-7625
▁있다고	-7626
▁전부다	-7627
▁전지현	-7628
▁지나친	-7629
▁최대의	-7630
▁추억을	-7631
▁탁월한	-7632
▁통쾌한	-7633
▁팀버튼	-7634
▁포인트	-7635
▁표현이	-7636
▁하기엔	-7637
▁한효주	-7638
▁할수있	-7639
▁해야지	-7640
▁현실은	-7641
▁후회함	-7642
▁흑역사	-7643
나왔으면	-7644
드라마는	-7645
하나하나	-7646
하하하하	-7647
▁2010	-7648
▁best	-7649
▁걸작이다	-7650
▁내용전개	-7651
▁만든건지	-7652
▁바탕으로	-7653
▁별한개도	-7654
▁보고싶어	-7655
▁상상력이	-7656
▁스릴러물	-7657
▁영화감독	-7658
▁영화인것	-7659
▁이영화에	-7660
▁인생에서	-7661
▁지루했음	-7662
▁흥미롭게	-7663
▁힘들었다	-7664
▁기대됩니다	-7665
▁러브스토리	-7666
▁영화였는데	-7667
▁유치하지만	-7668
▁지루하기만	-7669
▁ᄏᄏᄏᄏᄏᄏᄏᄏᄏᄏᄏ	-7670
tv	-7671
▁엮	-7672
▁옳	-7673
고한	-7674
꺼면	-7675
남길	-7676
남을	-7677
년간	-7678
더스	-7679
데요	-7680
력에	-7681
르다	-7682
맞는	-7683
성룡	-7684
속을	-7685
스카	-7686
슬프	-7687
아들	-7688
어책	-7689
으다	-7690
자리	-7691
저것	-7692
점만	-7693
점줄	-7694
졌네	-7695
주네	-7696
지원	-7697
참고	-7698
청하	-7699
초딩	-7700
표정	-7701
해져	-7702
혜교	-7703
ill	-7704
ost	-7705
▁고문	-7706
▁기념	-7707
▁꿈과	-7708
▁나을	-7709
▁내고	-7710
▁넘치	-7711
▁눈요	-7712
▁당장	-7713
▁들이	-7714
▁등록	-7715
▁맞다	-7716
▁매혹	-7717
▁민족	-7718
▁박시	-7719
▁반대	-7720
▁보셈	-7721
▁불과	-7722
▁비록	-7723
▁상투	-7724
▁슈렉	-7725
▁스펙	-7726
▁십점	-7727
▁안봐	-7728
▁엉엉	-7729
▁이경	-7730
▁재수	-7731
▁적극	-7732
▁전화	-7733
▁졸려	-7734
▁찍는	-7735
▁천국	-7736
▁침묵	-7737
▁캐릭	-7738
▁큐브	-7739
▁클리	-7740
▁패션	-7741
▁펭귄	-7742
▁한개	-7743
것같음	-7744
버리지	-7745
시간을	-7746
십니다	-7747
여배우	-7748
였다면	-7749
원주고	-7750
이정도	-7751
잘만들	-7752
▁KBS	-7753
▁ocn	-7754
▁극장에	-7755
▁기가막	-7756
▁기대에	-7757
▁김태희	-7758
▁나왔음	-7759
▁넘어서	-7760
▁대실망	-7761
▁돈낭비	-7762
▁또라이	-7763
▁바라는	-7764
▁배우와	-7765
▁본듯한	-7766
▁브래드	-7767
▁비행기	-7768
▁빠져서	-7769
▁상당한	-7770
▁설정은	-7771
▁신데렐	-7772
▁아오이	-7773
▁엄정화	-7774
▁없는듯	-7775
▁엔딩크	-7776
▁영화일	-7777
▁예뻐서	-7778
▁원하는	-7779
▁의도를	-7780
▁이끌어	-7781
▁작가님	-7782
▁재밋는	-7783
▁재밌지	-7784
▁전율이	-7785
▁최소한	-7786
▁할말을	-7787
되는영화	-7788
재밌는데	-7789
▁군더더기	-7790
▁그들만의	-7791
▁돋보인다	-7792
▁드라마도	-7793
▁드라마로	-7794
▁떠오르는	-7795
▁사랑한다	-7796
▁슬프지만	-7797
▁싫어하는	-7798
▁아까워요	-7799
▁아까웠던	-7800
▁아니네요	-7801
▁어린이용	-7802
▁어설프게	-7803
▁어우러진	-7804
▁없는영화	-7805
▁여태까지	-7806
▁예고편이	-7807
▁완벽하게	-7808
▁의미있는	-7809
▁이탈리아	-7810
▁인상깊게	-7811
▁주연배우	-7812
▁지루함이	-7813
▁흘러가는	-7814
▁감동도없고	-7815
▁소피마르소	-7816
▁아름다웠다	-7817
▁오글거리는	-7818
▁이영화보고	-7819
▁자연스럽게	-7820
▁지루하지않	-7821
▁지루했어요	-7822
▁파워레인저	-7823
▁최고였습니다	-7824
▁킬링타임용도	-7825
▁ᄏᄏᄏᄏᄏᄏᄏᄏᄏᄏ	-7826
..............	-7827
el	-7828
▁꽉	-7829
▁락	-7830
▁밍	-7831
▁섭	-7832
▁숲	-7833
▁핀	-7834
▁혈	-7835
간에	-7836
것다	-7837
끌고	-7838
느냐	-7839
러니	-7840
려진	-7841
못보	-7842
선이	-7843
수로	-7844
실패	-7845
약한	-7846
외엔	-7847
워라	-7848
이쁨	-7849
일을	-7850
재현	-7851
져야	-7852
증이	-7853
차피	-7854
치기	-7855
하죠	-7856
형이	-7857
홀로	-7858
히고	-7859
.!!	-7860
.,.	-7861
▁가을	-7862
▁각색	-7863
▁거냐	-7864
▁곱씹	-7865
▁노골	-7866
▁놈들	-7867
▁다녀	-7868
▁다케	-7869
▁대략	-7870
▁덴젤	-7871
▁되면	-7872
▁되야	-7873
▁들게	-7874
▁똥을	-7875
▁만났	-7876
▁말씀	-7877
▁멋잇	-7878
▁반응	-7879
▁밝혀	-7880
▁부정	-7881
▁불가	-7882
▁상징	-7883
▁생기	-7884
▁생명	-7885
▁소품	-7886
▁시사	-7887
▁안녕	-7888
▁어땠	-7889
▁오는	-7890
▁용두	-7891
▁우아	-7892
▁울게	-7893
▁유익	-7894
▁이영	-7895
▁인류	-7896
▁인지	-7897
▁저주	-7898
▁지워	-7899
▁지저	-7900
▁짱이	-7901
▁총격	-7902
▁커피	-7903
▁크다	-7904
▁클로	-7905
▁토끼	-7906
▁하도	-7907
▁홧팅	-7908
것보다	-7909
그런가	-7910
로맨스	-7911
리지만	-7912
분들이	-7913
분위기	-7914
야겠다	-7915
얼마나	-7916
에게도	-7917
에대해	-7918
졌으면	-7919
ᄋᄋᄋᄋ	-7920
▁0.5	-7921
▁197	-7922
▁~~~	-7923
▁가족애	-7924
▁감성을	-7925
▁게임을	-7926
▁고인의	-7927
▁귀신이	-7928
▁그것을	-7929
▁나머진	-7930
▁낚이지	-7931
▁노래는	-7932
▁높은지	-7933
▁느껴지	-7934
▁느끼고	-7935
▁대사도	-7936
▁더욱더	-7937
▁만화는	-7938
▁못해서	-7939
▁무서울	-7940
▁뭔가가	-7941
▁뭔가요	-7942
▁반지의	-7943
▁받아야	-7944
▁봤는지	-7945
▁소지섭	-7946
▁손가락	-7947
▁신나는	-7948
▁안좋은	-7949
▁어쩌다	-7950
▁영화판	-7951
▁웃겼음	-7952
▁의외의	-7953
▁이건좀	-7954
▁이쁘게	-7955
▁있으나	-7956
▁조용히	-7957
▁중학교	-7958
▁초반엔	-7959
▁최초의	-7960
▁카메론	-7961
▁케이트	-7962
▁코드가	-7963
▁페이크	-7964
▁해준다	-7965
▁했을까	-7966
것같은데	-7967
하는구나	-7968
할정도로	-7969
▁긴장감과	-7970
▁느껴지지	-7971
▁많은것을	-7972
▁말하려는	-7973
▁먹먹하다	-7974
▁무서웠다	-7975
▁배경으로	-7976
▁볼만했음	-7977
▁사무라이	-7978
▁살아있는	-7979
▁스토리로	-7980
▁시리즈를	-7981
▁실화라니	-7982
▁쓸데없는	-7983
▁어디까지	-7984
▁에드워드	-7985
▁여배우의	-7986
▁오글거리	-7987
▁욕나온다	-7988
▁장난아니	-7989
▁죽기전에	-7990
▁했습니다	-7991
▁호불호가	-7992
▁흐지부지	-7993
▁시간아까움	-7994
▁시간아까워	-7995
▁영화라는게	-7996
▁인간적으로	-7997
▁일깨워주는	-7998
▁재밌는영화	-7999
▁지루하지만	-8000
13	-8001
>_	-8002
▁j	-8003
▁닌	-8004
▁덮	-8005
▁롱	-8006
▁붉	-8007
▁욱	-8008
▁웹	-8009
▁훌	-8010
감에	-8011
권택	-8012
귀신	-8013
기법	-8014
낮지	-8015
내려	-8016
달라	-8017
덜덜	-8018
동이	-8019
두근	-8020
드립	-8021
따구	-8022
때도	-8023
라나	-8024
란히	-8025
러브	-8026
렸음	-8027
멤버	-8028
미니	-8029
민의	-8030
바닥	-8031
바리	-8032
번에	-8033
법한	-8034
보내	-8035
본듯	-8036
볼일	-8037
부한	-8038
상태	-8039
슬리	-8040
영웅	-8041
올때	-8042
운데	-8043
자막	-8044
저기	-8045
죽을	-8046
중요	-8047
편집	-8048
화면	-8049
^_^	-8050
▁1~	-8051
▁in	-8052
▁it	-8053
▁so	-8054
▁ᄇᄉ	-8055
▁가난	-8056
▁가수	-8057
▁거창	-8058
▁걸까	-8059
▁걸로	-8060
▁것들	-8061
▁구경	-8062
▁구로	-8063
▁구조	-8064
▁그대	-8065
▁나아	-8066
▁남성	-8067
▁뉴욕	-8068
▁대부	-8069
▁동네	-8070
▁되나	-8071
▁만듬	-8072
▁말투	-8073
▁망설	-8074
▁무색	-8075
▁물씬	-8076
▁반감	-8077
▁방해	-8078
▁방황	-8079
▁번을	-8080
▁본질	-8081
▁불법	-8082
▁상어	-8083
▁소림	-8084
▁수는	-8085
▁신세	-8086
▁아카	-8087
▁어딘	-8088
▁에러	-8089
▁여신	-8090
▁우린	-8091
▁웃게	-8092
▁유령	-8093
▁의지	-8094
▁의한	-8095
▁잘함	-8096
▁전도	-8097
▁중의	-8098
▁줘도	-8099
▁지하	-8100
▁찾기	-8101
▁총알	-8102
▁파이	-8103
▁한대	-8104
▁한줄	-8105
▁할지	-8106
▁훈남	-8107
▁흘렀	-8108
끝나고	-8109
다니는	-8110
들한테	-8111
보려고	-8112
분들은	-8113
안된다	-8114
이란게	-8115
이해가	-8116
점이지	-8117
지않아	-8118
하는듯	-8119
▁300	-8120
▁감성이	-8121
▁김민종	-8122
▁나와도	-8123
▁나와야	-8124
▁남자는	-8125
▁넘어선	-8126
▁다른건	-8127
▁답답해	-8128
▁대사와	-8129
▁돈아까	-8130
▁되돌아	-8131
▁드네요	-8132
▁또보고	-8133
▁만드냐	-8134
▁만화를	-8135
▁뭐랄까	-8136
▁벗어나	-8137
▁보이지	-8138
▁성룡이	-8139
▁성우가	-8140
▁시원한	-8141
▁시작은	-8142
▁신나게	-8143
▁심장이	-8144
▁안나왔	-8145
▁애들도	-8146
▁액션물	-8147
▁얘기를	-8148
▁없다고	-8149
▁여자를	-8150
▁예뻐요	-8151
▁용두사	-8152
▁이게왜	-8153
▁이은주	-8154
▁잘나가	-8155
▁장동건	-8156
▁졸면서	-8157
▁주상욱	-8158
▁특이한	-8159
▁평점올	-8160
▁하세요	-8161
▁하지원	-8162
▁흠잡을	-8163
감동적인	-8164
더라고요	-8165
배속으로	-8166
재미없고	-8167
▁2003	-8168
▁가슴아픈	-8169
▁괜찮던데	-8170
▁귀여워서	-8171
▁그래픽이	-8172
▁내러티브	-8173
▁다큐멘터	-8174
▁도라에몽	-8175
▁런닝타임	-8176
▁만들어서	-8177
▁만들었네	-8178
▁만으로도	-8179
▁무슨말이	-8180
▁미치도록	-8181
▁별로였음	-8182
▁수준이하	-8183
▁아니라면	-8184
▁아마추어	-8185
▁아이들은	-8186
▁않습니다	-8187
▁옛날영화	-8188
▁이드라마	-8189
▁이야기에	-8190
▁이연걸의	-8191
▁잊을수가	-8192
▁줄거리가	-8193
▁지났지만	-8194
▁최고라는	-8195
▁코미디도	-8196
▁파라노말	-8197
▁하지마라	-8198
▁힘내세요	-8199
줄알았는데	-8200
▁미안하지만	-8201
▁볼만하네요	-8202
▁스파이더맨	-8203
▁실망스러운	-8204
▁실망스럽다	-8205
▁엔딩크레딧	-8206
▁울었습니다	-8207
▁최고였어요	-8208
.(	-8209
0-	-8210
22	-8211
un	-8212
~♥	-8213
▁값	-8214
▁맷	-8215
▁밴	-8216
▁슴	-8217
▁좆	-8218
▁핫	-8219
거죠	-8220
나무	-8221
높다	-8222
누가	-8223
다리	-8224
다만	-8225
달아	-8226
렸던	-8227
맹랑	-8228
명한	-8229
못함	-8230
번도	-8231
비홍	-8232
사고	-8233
사도	-8234
숙한	-8235
순례	-8236
스피	-8237
시도	-8238
야자	-8239
에휴	-8240
역할	-8241
오고	-8242
완벽	-8243
원에	-8244
원을	-8245
유머	-8246
으셨	-8247
이와	-8248
인드	-8249
전은	-8250
전의	-8251
졸라	-8252
짓을	-8253
코가	-8254
평을	-8255
하의	-8256
하트	-8257
히히	-8258
..,	-8259
▁간단	-8260
▁감수	-8261
▁거듭	-8262
▁국가	-8263
▁귀찮	-8264
▁그를	-8265
▁길고	-8266
▁나뿐	-8267
▁납득	-8268
▁단언	-8269
▁덕에	-8270
▁도시	-8271
▁두말	-8272
▁들지	-8273
▁등등	-8274
▁로렌	-8275
▁만약	-8276
▁멈추	-8277
▁멘탈	-8278
▁모냐	-8279
▁모야	-8280
▁무대	-8281
▁미쳐	-8282
▁버무	-8283
▁법정	-8284
▁볼것	-8285
▁빠질	-8286
▁색채	-8287
▁성찰	-8288
▁속은	-8289
▁속이	-8290
▁솔까	-8291
▁싸우	-8292
▁애로	-8293
▁엽문	-8294
▁오해	-8295
▁올드	-8296
▁외면	-8297
▁유오	-8298
▁잼없	-8299
▁저기	-8300
▁정보	-8301
▁짱구	-8302
▁차마	-8303
▁찾는	-8304
▁퀴어	-8305
▁하셨	-8306
나보다	-8307
너무나	-8308
리면서	-8309
보인다	-8310
시청률	-8311
알았다	-8312
어주는	-8313
웃기고	-8314
이들의	-8315
있다면	-8316
재밌는	-8317
점드림	-8318
좋았음	-8319
지루한	-8320
하기에	-8321
▁,,,	-8322
▁???	-8323
▁ebs	-8324
▁감흥이	-8325
▁같지만	-8326
▁거기서	-8327
▁것들이	-8328
▁경의를	-8329
▁괜찮네	-8330
▁기억될	-8331
▁나은듯	-8332
▁낚였네	-8333
▁도움이	-8334
▁맙시다	-8335
▁매력은	-8336
▁모자라	-8337
▁못따라	-8338
▁버렸다	-8339
▁보지도	-8340
▁불후의	-8341
▁사기꾼	-8342
▁사람만	-8343
▁상황을	-8344
▁소재에	-8345
▁스페인	-8346
▁실패한	-8347
▁안되나	-8348
▁알려준	-8349
▁알수있	-8350
▁어차피	-8351
▁언제쯤	-8352
▁언젠가	-8353
▁에로틱	-8354
▁엔딩은	-8355
▁영화죠	-8356
▁왔는데	-8357
▁요즘은	-8358
▁웃기지	-8359
▁웃어야	-8360
▁원작은	-8361
▁원피스	-8362
▁음악을	-8363
▁일베충	-8364
▁일본판	-8365
▁임청하	-8366
▁있나요	-8367
▁작품중	-8368
▁잘하네	-8369
▁장르는	-8370
▁장르의	-8371
▁적나라	-8372
▁전성기	-8373
▁정주행	-8374
▁졸았다	-8375
▁쥬라기	-8376
▁짐캐리	-8377
▁총체적	-8378
▁취향이	-8379
▁훌륭함	-8380
생각으로	-8381
시간낭비	-8382
영화에서	-8383
왔습니다	-8384
좋았어요	-8385
티비에서	-8386
할수없는	-8387
▁very	-8388
▁깔끔하고	-8389
▁너무좋아	-8390
▁너무한다	-8391
▁다시보기	-8392
▁다이하드	-8393
▁리즈시절	-8394
▁몰입도도	-8395
▁무서워서	-8396
▁비교하면	-8397
▁빠져드는	-8398
▁뻔하지만	-8399
▁생각나게	-8400
▁선동영화	-8401
▁스토리나	-8402
▁싶습니다	-8403
▁쓰레기임	-8404
▁안했는데	-8405
▁어렸을적	-8406
▁엉성하다	-8407
▁여자들이	-8408
▁영화같다	-8409
▁완성도가	-8410
▁웬만하면	-8411
▁이따위로	-8412
▁인간적인	-8413
▁장면들이	-8414
▁재밌게본	-8415
▁졸업작품	-8416
▁졸작이다	-8417
▁좋아하게	-8418
▁초반에는	-8419
▁너무재미있	-8420
▁명작이라고	-8421
▁스토리지만	-8422
▁재미없다는	-8423
▁재미있었고	-8424
▁주인공들이	-8425
...............	-8426
.9	-8427
18	-8428
id	-8429
if	-8430
lt	-8431
▁`	-8432
▁년	-8433
▁벽	-8434
▁셀	-8435
▁싼	-8436
▁짤	-8437
▁쫓	-8438
▁캡	-8439
▁탱	-8440
▁힙	-8441
가도	-8442
감상	-8443
구라	-8444
그녀	-8445
근한	-8446
급도	-8447
끼는	-8448
남기	-8449
노출	-8450
높아	-8451
닝맨	-8452
데미	-8453
들로	-8454
래셔	-8455
르르	-8456
맨쇼	-8457
보던	-8458
볼타	-8459
수정	-8460
스페	-8461
시켰	-8462
아프	-8463
어쩌	-8464
여기	-8465
원도	-8466
을뿐	-8467
일에	-8468
저질	-8469
지우	-8470
진호	-8471
철학	-8472
코드	-8473
평생	-8474
폭력	-8475
하가	-8476
▁99	-8477
▁관대	-8478
▁그로	-8479
▁긴박	-8480
▁길을	-8481
▁김선	-8482
▁김정	-8483
▁나면	-8484
▁날려	-8485
▁담고	-8486
▁대역	-8487
▁도통	-8488
▁동심	-8489
▁때는	-8490
▁마찬	-8491
▁말라	-8492
▁면이	-8493
▁몸을	-8494
▁못주	-8495
▁밀라	-8496
▁발상	-8497
▁배울	-8498
▁베트	-8499
▁보려	-8500
▁봤어	-8501
▁뻔뻔	-8502
▁사용	-8503
▁쉬운	-8504
▁신이	-8505
▁아메	-8506
▁안봄	-8507
▁약한	-8508
▁어딜	-8509
▁없던	-8510
▁연관	-8511
▁열광	-8512
▁옆에	-8513
▁온몸	-8514
▁외엔	-8515
▁욕만	-8516
▁욕이	-8517
▁의상	-8518
▁인가	-8519
▁잡고	-8520
▁장혁	-8521
▁재현	-8522
▁지는	-8523
▁지지	-8524
▁참여	-8525
▁충무	-8526
▁커서	-8527
▁코드	-8528
▁혹은	-8529
▁환장	-8530
▁흑흑	-8531
감동이	-8532
같네요	-8533
기위해	-8534
내용을	-8535
마저도	-8536
만든다	-8537
매니아	-8538
못하고	-8539
버린다	-8540
봤으면	-8541
시대의	-8542
아쉽다	-8543
야자키	-8544
영환데	-8545
이쁘고	-8546
적이라	-8547
지않음	-8548
▁결과는	-8549
▁관심이	-8550
▁괜찮아	-8551
▁글쎄요	-8552
▁끝난다	-8553
▁끝판왕	-8554
▁나홀로	-8555
▁느낀다	-8556
▁다큐를	-8557
▁달콤한	-8558
▁도중에	-8559
▁들어도	-8560
▁맞추기	-8561
▁먹먹한	-8562
▁메시지	-8563
▁면에서	-8564
▁못했던	-8565
▁보낸다	-8566
▁복잡한	-8567
▁산드라	-8568
▁세상은	-8569
▁속편이	-8570
▁스티브	-8571
▁시대가	-8572
▁심리묘	-8573
▁아무튼	-8574
▁아이를	-8575
▁안되네	-8576
▁양조위	-8577
▁엑소시	-8578
▁영화랑	-8579
▁왜이런	-8580
▁작품에	-8581
▁재방송	-8582
▁죽인다	-8583
▁즐거움	-8584
▁지겨운	-8585
▁지대로	-8586
▁크레딧	-8587
▁클라스	-8588
▁파이팅	-8589
▁흡입력	-8590
스럽네요	-8591
스토리는	-8592
우리나라	-8593
적이지만	-8594
프라이즈	-8595
프로그램	-8596
▁2004	-8597
▁감동감동	-8598
▁다음으로	-8599
▁만들기도	-8600
▁매력있는	-8601
▁생각했던	-8602
▁신선하다	-8603
▁아이언맨	-8604
▁어쩌라고	-8605
▁어쩌라는	-8606
▁연기력과	-8607
▁영화다운	-8608
▁이게뭐야	-8609
▁잔잔하니	-8610
▁적당하다	-8611
▁좋아했던	-8612
▁크리스토	-8613
▁하고싶은	-8614
▁한번쯤은	-8615
▁허무하게	-8616
▁허무하다	-8617
▁후반부로	-8618
개인적으로	-8619
점드립니다	-8620
▁고맙습니다	-8621
▁보고있는데	-8622
▁스토리전개	-8623
▁시나리오도	-8624
▁영화중에서	-8625
▁재미있다고	-8626
▁좋아합니다	-8627
▁초등학교때	-8628
▁한국영화가	-8629
▁감동적이었습니다	-8630
.?	-8631
@@	-8632
ch	-8633
df	-8634
▁곡	-8635
▁빚	-8636
▁쉴	-8637
▁쏴	-8638
▁왓	-8639
가며	-8640
걱정	-8641
겟음	-8642
곳이	-8643
공이	-8644
그림	-8645
급이	-8646
깁슨	-8647
깊게	-8648
다들	-8649
라구	-8650
리타	-8651
마가	-8652
맞은	-8653
멸망	-8654
밀리	-8655
밑에	-8656
본거	-8657
부림	-8658
빠다	-8659
서트	-8660
시걸	-8661
실화	-8662
씨도	-8663
안의	-8664
엿다	-8665
웃긴	-8666
원회	-8667
으려	-8668
을것	-8669
이더	-8670
일세	-8671
임이	-8672
잘못	-8673
장센	-8674
잼잇	-8675
절로	-8676
죽여	-8677
체가	-8678
터짐	-8679
평이	-8680
함만	-8681
▁ᄀᄀ	-8682
▁감이	-8683
▁갖춘	-8684
▁건강	-8685
▁경악	-8686
▁공주	-8687
▁구지	-8688
▁글고	-8689
▁김명	-8690
▁김현	-8691
▁깨끗	-8692
▁낮음	-8693
▁농구	-8694
▁느슨	-8695
▁닥터	-8696
▁뛰쳐	-8697
▁마냥	-8698
▁마녀	-8699
▁마다	-8700
▁매번	-8701
▁머지	-8702
▁물어	-8703
▁배드	-8704
▁샤를	-8705
▁서세	-8706
▁속의	-8707
▁수사	-8708
▁스킵	-8709
▁심은	-8710
▁심한	-8711
▁싶게	-8712
▁아따	-8713
▁악몽	-8714
▁어떡	-8715
▁엉덩	-8716
▁에바	-8717
▁엘리	-8718
▁웃는	-8719
▁이겨	-8720
▁이완	-8721
▁일탈	-8722
▁잘안	-8723
▁전락	-8724
▁제왕	-8725
▁지상	-8726
▁쩌네	-8727
▁창의	-8728
▁처절	-8729
▁최대	-8730
▁추락	-8731
▁출발	-8732
▁커버	-8733
▁컨셉	-8734
▁텐데	-8735
▁토요	-8736
▁퇴보	-8737
▁팍팍	-8738
▁편의	-8739
▁한정	-8740
▁허전	-8741
▁혼란	-8742
▁화질	-8743
▁황홀	-8744
▁휴먼	-8745
가면서	-8746
거같아	-8747
는다고	-8748
모습이	-8749
방에서	-8750
사람의	-8751
셨으면	-8752
아아아	-8753
안에서	-8754
연기잘	-8755
였네요	-8756
왜이리	-8757
으세요	-8758
음악도	-8759
음악이	-8760
이것도	-8761
중간에	-8762
지않게	-8763
창시절	-8764
특유의	-8765
하나는	-8766
할영화	-8767
함으로	-8768
!!^^	-8769
0000	-8770
▁MBC	-8771
▁과장된	-8772
▁나왔던	-8773
▁놈들은	-8774
▁단순히	-8775
▁더럽다	-8776
▁들어간	-8777
▁떨어뜨	-8778
▁만큼은	-8779
▁명성을	-8780
▁미이라	-8781
▁박평식	-8782
▁베드신	-8783
▁별다른	-8784
▁보고도	-8785
▁부럽다	-8786
▁생각만	-8787
▁송지효	-8788
▁않으면	-8789
▁알게된	-8790
▁어째서	-8791
▁없으니	-8792
▁엉터리	-8793
▁영화계	-8794
▁웃기긴	-8795
▁원맨쇼	-8796
▁의미는	-8797
▁이정재	-8798
▁인내심	-8799
▁일본이	-8800
▁임권택	-8801
▁임팩트	-8802
▁있는가	-8803
▁자유를	-8804
▁처음이	-8805
▁초딩이	-8806
▁최민수	-8807
▁치고는	-8808
▁클라이	-8809
▁평가를	-8810
▁평점낮	-8811
▁풀어낸	-8812
▁프레디	-8813
▁하지마	-8814
▁하지말	-8815
▁한번만	-8816
▁한예슬	-8817
▁한장면	-8818
만들어도	-8819
스트우드	-8820
재미없는	-8821
...!!	-8822
?????	-8823
▁2005	-8824
▁감독에게	-8825
▁그지같은	-8826
▁꺼버렸다	-8827
▁나오는데	-8828
▁나왔는데	-8829
▁답답해서	-8830
▁대작이다	-8831
▁만들어야	-8832
▁만들어주	-8833
▁멋있어요	-8834
▁미야자키	-8835
▁바라보는	-8836
▁볼거리도	-8837
▁분위기에	-8838
▁생각나네	-8839
▁생각해도	-8840
▁스릴있고	-8841
▁스케일이	-8842
▁아니라서	-8843
▁어울리지	-8844
▁어이없고	-8845
▁없었으면	-8846
▁영상미와	-8847
▁유치뽕짝	-8848
▁이따구로	-8849
▁이야기도	-8850
▁일본에서	-8851
▁잃어버린	-8852
▁있는영화	-8853
▁중학교때	-8854
▁지루해요	-8855
▁캐릭터를	-8856
...;;;	-8857
▁네이버평점	-8858
▁스타일리쉬	-8859
▁억지스럽고	-8860
▁오글거리고	-8861
▁우리나라의	-8862
▁흥미진진한	-8863
ᄏᄏᄏᄏᄏᄏᄏᄏᄏᄏ	-8864
!!!!!!!!!!!	-8865
ᄏᄏᄏᄏᄏᄏᄏᄏᄏᄏᄏ	-8866
ve	-8867
▁깝	-8868
▁델	-8869
▁떄	-8870
▁뚫	-8871
▁뿜	-8872
▁쌈	-8873
▁측	-8874
▁켄	-8875
▁톱	-8876
▁훔	-8877
가게	-8878
가면	-8879
가자	-8880
거는	-8881
겨울	-8882
공부	-8883
공의	-8884
궁금	-8885
그의	-8886
기술	-8887
기종	-8888
꺼다	-8889
나쁜	-8890
나지	-8891
내서	-8892
넘게	-8893
는디	-8894
대고	-8895
드문	-8896
등장	-8897
뜨고	-8898
라라	-8899
롭게	-8900
면을	-8901
무협	-8902
미도	-8903
민아	-8904
보나	-8905
복수	-8906
봣음	-8907
사라	-8908
서린	-8909
스도	-8910
양의	-8911
연이	-8912
용도	-8913
웠고	-8914
위가	-8915
율이	-8916
저런	-8917
중엔	-8918
줘라	-8919
진은	-8920
천원	-8921
치만	-8922
치면	-8923
치콕	-8924
혀서	-8925
!^^	-8926
▁me	-8927
▁가야	-8928
▁가해	-8929
▁개떡	-8930
▁구역	-8931
▁깜찍	-8932
▁나니	-8933
▁나참	-8934
▁난생	-8935
▁남편	-8936
▁내겐	-8937
▁뇌가	-8938
▁단조	-8939
▁대가	-8940
▁대책	-8941
▁데드	-8942
▁도입	-8943
▁돈도	-8944
▁돈벌	-8945
▁돈은	-8946
▁두명	-8947
▁듣는	-8948
▁몰락	-8949
▁믿어	-8950
▁박정	-8951
▁배가	-8952
▁백배	-8953
▁블루	-8954
▁빅뱅	-8955
▁빨간	-8956
▁사로	-8957
▁속도	-8958
▁순진	-8959
▁승리	-8960
▁시골	-8961
▁쓰나	-8962
▁애절	-8963
▁여유	-8964
▁오다	-8965
▁우선	-8966
▁울어	-8967
▁원빈	-8968
▁위로	-8969
▁음향	-8970
▁의사	-8971
▁이범	-8972
▁인권	-8973
▁일생	-8974
▁작화	-8975
▁잡아	-8976
▁적은	-8977
▁절라	-8978
▁주관	-8979
▁주옥	-8980
▁지존	-8981
▁찍지	-8982
▁채워	-8983
▁책임	-8984
▁최하	-8985
▁카피	-8986
▁콤비	-8987
▁택시	-8988
▁평소	-8989
▁하긴	-8990
▁해요	-8991
가능한	-8992
그나마	-8993
기억에	-8994
까지도	-8995
났어요	-8996
는거임	-8997
달라고	-8998
돈으로	-8999
드려요	-9000
들보다	-9001
랬는데	-9002
머니즘	-9003
뭡니까	-9004
보다니	-9005
볼수있	-9006
분보고	-9007
빼고는	-9008
씩이나	-9009
아깝고	-9010
아니야	-9011
이런거	-9012
일리언	-9013
좋아서	-9014
하길래	-9015
...1	-9016
▁500	-9017
▁강지환	-9018
▁교훈이	-9019
▁그시절	-9020
▁기대는	-9021
▁기억남	-9022
▁나오기	-9023
▁냄새가	-9024
▁누군지	-9025
▁니들이	-9026
▁되어야	-9027
▁두시간	-9028
▁드니로	-9029
▁똑같이	-9030
▁모습은	-9031
▁문제를	-9032
▁받았다	-9033
▁별기대	-9034
▁별로인	-9035
▁보게되	-9036
▁보는듯	-9037
▁볼만은	-9038
▁분명히	-9039
▁세상의	-9040
▁솔직한	-9041
▁시간과	-9042
▁시절의	-9043
▁씁쓸한	-9044
▁아픔을	-9045
▁어색함	-9046
▁어설픔	-9047
▁연기로	-9048
▁영화볼	-9049
▁외로움	-9050
▁위하여	-9051
▁이나영	-9052
▁이뻐요	-9053
▁이쁘네	-9054
▁일어나	-9055
▁잘봤다	-9056
▁장나라	-9057
▁죽이네	-9058
▁즐겁고	-9059
▁짧아서	-9060
▁차이가	-9061
▁클래식	-9062
▁클리셰	-9063
▁타이틀	-9064
▁한다고	-9065
▁한번씩	-9066
▁한번은	-9067
▁화면이	-9068
긴했지만	-9069
렸습니다	-9070
있었는데	-9071
재밌었다	-9072
점입니다	-9073
▁-_-;	-9074
▁2001	-9075
▁강력추천	-9076
▁고스란히	-9077
▁그런대로	-9078
▁끝내준다	-9079
▁두근두근	-9080
▁마찬가지	-9081
▁메세지를	-9082
▁멜로영화	-9083
▁몰입하게	-9084
▁묻어나는	-9085
▁별반개도	-9086
▁보이지만	-9087
▁상영관이	-9088
▁수고하셨	-9089
▁스타일의	-9090
▁쓰레기통	-9091
▁아니라는	-9092
▁아버지가	-9093
▁안나오고	-9094
▁안타까움	-9095
▁여기저기	-9096
▁연기하는	-9097
▁영화들이	-9098
▁예술영화	-9099
▁오글거려	-9100
▁오유에서	-9101
▁의미없는	-9102
▁이건진짜	-9103
▁이상으로	-9104
▁인종차별	-9105
▁재밌었어	-9106
▁좋아지는	-9107
▁중국영화	-9108
▁중반부터	-9109
▁최고였음	-9110
▁평론가들	-9111
▁허무맹랑	-9112
점준것중에	-9113
최악의영화	-9114
하겠습니다	-9115
▁감동적으로	-9116
▁시나리오는	-9117
▁오글거려서	-9118
▁우리나라는	-9119
▁이렇게까지	-9120
▁있었습니다	-9121
▁재미없는데	-9122
▁좋아한다면	-9123
▁좋아할만한	-9124
▁말이필요없는	-9125
,,,,,,,,	-9126
ᄏᄏᄏᄏᄏᄏᄏᄏᄏᄏᄏᄏᄏ	-9127
▁ᄏᄏᄏᄏᄏᄏᄏᄏᄏᄏᄏᄏᄏ	-9128
ld	-9129
ᄉᄋ	-9130
▁ᅵ	-9131
▁↓	-9132
▁끓	-9133
▁싹	-9134
▁옮	-9135
▁춘	-9136
▁칸	-9137
▁턱	-9138
감각	-9139
괜히	-9140
극을	-9141
급을	-9142
기나	-9143
기와	-9144
끄는	-9145
나만	-9146
놈은	-9147
누구	-9148
눈이	-9149
될듯	-9150
디젤	-9151
만세	-9152
못미	-9153
문의	-9154
뭐가	-9155
보며	-9156
부러	-9157
분도	-9158
분만	-9159
브라	-9160
빨고	-9161
생이	-9162
세지	-9163
센트	-9164
시라	-9165
시죠	-9166
싱턴	-9167
여름	-9168
영원	-9169
올라	-9170
워커	-9171
은이	-9172
이러	-9173
일때	-9174
잇고	-9175
자식	-9176
전문	-9177
점짜	-9178
정서	-9179
조한	-9180
좋았	-9181
크의	-9182
탄은	-9183
탄이	-9184
판을	-9185
회가	-9186
.10	-9187
ain	-9188
ion	-9189
▁가상	-9190
▁강요	-9191
▁갖게	-9192
▁같네	-9193
▁개독	-9194
▁게리	-9195
▁경계	-9196
▁고딩	-9197
▁고증	-9198
▁과잉	-9199
▁그들	-9200
▁김소	-9201
▁나빠	-9202
▁나열	-9203
▁낫지	-9204
▁놓은	-9205
▁단역	-9206
▁더럽	-9207
▁독창	-9208
▁돈과	-9209
▁돈만	-9210
▁똥폼	-9211
▁말만	-9212
▁몇년	-9213
▁버금	-9214
▁버전	-9215
▁부러	-9216
▁비참	-9217
▁비틀	-9218
▁상실	-9219
▁색감	-9220
▁성형	-9221
▁스콧	-9222
▁쓰러	-9223
▁쓰렉	-9224
▁안감	-9225
▁어렷	-9226
▁어마	-9227
▁연인	-9228
▁오토	-9229
▁오페	-9230
▁올레	-9231
▁옹박	-9232
▁완성	-9233
▁완소	-9234
▁웹툰	-9235
▁이란	-9236
▁이중	-9237
▁이혼	-9238
▁잘하	-9239
▁주먹	-9240
▁주원	-9241
▁쪽팔	-9242
▁찜찜	-9243
▁찢어	-9244
▁차별	-9245
▁채우	-9246
▁천만	-9247
▁출신	-9248
▁코엔	-9249
▁푸른	-9250
▁픽션	-9251
▁하냐	-9252
▁하니	-9253
▁한거	-9254
▁한물	-9255
▁할때	-9256
▁향한	-9257
▁허구	-9258
국주의	-9259
너무낮	-9260
느와르	-9261
또봐도	-9262
리는데	-9263
분정도	-9264
소리는	-9265
스트라	-9266
쒸레기	-9267
앗는데	-9268
어디서	-9269
영화나	-9270
윌리스	-9271
자들은	-9272
하자면	-9273
할게요	-9274
회부터	-9275
▁강아지	-9276
▁겉멋만	-9277
▁관람객	-9278
▁굉장한	-9279
▁국어책	-9280
▁기대도	-9281
▁깜짝놀	-9282
▁꼭봐라	-9283
▁낚여서	-9284
▁남는건	-9285
▁느껴질	-9286
▁더더욱	-9287
▁로보캅	-9288
▁만드나	-9289
▁말하려	-9290
▁멋있어	-9291
▁미국판	-9292
▁방법이	-9293
▁배경도	-9294
▁별볼일	-9295
▁보여줌	-9296
▁비교가	-9297
▁뻔해서	-9298
▁섹시한	-9299
▁소리만	-9300
▁손색이	-9301
▁슬퍼서	-9302
▁싶으면	-9303
▁아동용	-9304
▁안봤다	-9305
▁않아도	-9306
▁애초에	-9307
▁어둡고	-9308
▁어이없	-9309
▁엄마랑	-9310
▁없구만	-9311
▁여운도	-9312
▁영구와	-9313
▁영화찍	-9314
▁오늘도	-9315
▁오로지	-9316
▁외로운	-9317
▁울었던	-9318
▁웃으며	-9319
▁유머와	-9320
▁이거는	-9321
▁이상을	-9322
▁일본식	-9323
▁잔혹한	-9324
▁장면들	-9325
▁전작에	-9326
▁전작의	-9327
▁절제된	-9328
▁죽음을	-9329
▁즐겁다	-9330
▁지겨워	-9331
▁징그러	-9332
▁차승원	-9333
▁채플린	-9334
▁처절한	-9335
▁취향은	-9336
▁평점도	-9337
▁평점좀	-9338
▁표정이	-9339
▁하나가	-9340
▁한국에	-9341
▁홍금보	-9342
▁후덜덜	-9343
▁히치콕	-9344
볼수있는	-9345
시리즈중	-9346
쓰레기다	-9347
적이지도	-9348
하더라도	-9349
한마디로	-9350
▁극장판은	-9351
▁기대되는	-9352
▁남는영화	-9353
▁내스타일	-9354
▁대표적인	-9355
▁만드는지	-9356
▁몇안되는	-9357
▁못하지만	-9358
▁미친듯이	-9359
▁부끄러운	-9360
▁사람들을	-9361
▁사람마다	-9362
▁사랑스러	-9363
▁사랑으로	-9364
▁사실적인	-9365
▁시선으로	-9366
▁신데렐라	-9367
▁안봤지만	-9368
▁않았는데	-9369
▁영상미도	-9370
▁오글거림	-9371
▁왜이러지	-9372
▁이걸보고	-9373
▁이것저것	-9374
▁있었다니	-9375
▁자극하는	-9376
▁잔잔하다	-9377
▁정신건강	-9378
▁지금보니	-9379
▁캐릭터의	-9380
▁캐스팅도	-9381
▁학창시절	-9382
영화중에서	-9383
좋아하는데	-9384
▁너무재밌게	-9385
▁다크나이트	-9386
▁만들었으면	-9387
▁여주인공의	-9388
▁오그라든다	-9389
▁잔잔하면서	-9390
▁잘만들어진	-9391
▁행복해지는	-9392
▁재미없습니다	-9393
ct	-9394
gt	-9395
▁넓	-9396
▁롭	-9397
▁멕	-9398
▁및	-9399
▁퉤	-9400
가니	-9401
게이	-9402
결혼	-9403
그때	-9404
났던	-9405
누라	-9406
두번	-9407
드벤	-9408
들리	-9409
려라	-9410
로봇	-9411
리칸	-9412
린트	-9413
망한	-9414
맞고	-9415
매우	-9416
맹이	-9417
먼저	-9418
뭐임	-9419
박스	-9420
받아	-9421
뻔함	-9422
알아	-9423
어난	-9424
여러	-9425
연한	-9426
엿음	-9427
우이	-9428
이든	-9429
인권	-9430
작에	-9431
작을	-9432
저나	-9433
저링	-9434
제는	-9435
주니	-9436
중한	-9437
진의	-9438
진행	-9439
치않	-9440
타이	-9441
통수	-9442
판은	-9443
플렉	-9444
필드	-9445
필름	-9446
할줄	-9447
해줄	-9448
hat	-9449
▁//	-9450
▁24	-9451
▁98	-9452
▁가자	-9453
▁감옥	-9454
▁같지	-9455
▁거다	-9456
▁극중	-9457
▁기록	-9458
▁꿈이	-9459
▁나왓	-9460
▁노는	-9461
▁노동	-9462
▁다름	-9463
▁대여	-9464
▁돌고	-9465
▁때도	-9466
▁때의	-9467
▁마르	-9468
▁많음	-9469
▁맛깔	-9470
▁맡은	-9471
▁멀리	-9472
▁몸이	-9473
▁문득	-9474
▁미칠	-9475
▁박지	-9476
▁반개	-9477
▁받았	-9478
▁배려	-9479
▁백인	-9480
▁변신	-9481
▁본건	-9482
▁본능	-9483
▁볼걸	-9484
▁빠짐	-9485
▁상대	-9486
▁서극	-9487
▁섞어	-9488
▁소개	-9489
▁수십	-9490
▁순정	-9491
▁식스	-9492
▁썰렁	-9493
▁안질	-9494
▁앉아	-9495
▁압박	-9496
▁어둠	-9497
▁에릭	-9498
▁오인	-9499
▁온갖	-9500
▁욕심	-9501
▁우승	-9502
▁위에	-9503
▁의해	-9504
▁이념	-9505
▁일찍	-9506
▁읽은	-9507
▁정재	-9508
▁정화	-9509
▁제법	-9510
▁조심	-9511
▁중년	-9512
▁지가	-9513
▁지우	-9514
▁찍을	-9515
▁찰리	-9516
▁최후	-9517
▁추가	-9518
▁틈이	-9519
▁표본	-9520
▁허영	-9521
▁흐뭇	-9522
같지만	-9523
거에요	-9524
깁니다	-9525
나올때	-9526
냅니다	-9527
느낌이	-9528
드럽게	-9529
리다가	-9530
모습을	-9531
보느니	-9532
봤다가	-9533
부분은	-9534
사랑해	-9535
액션은	-9536
연기에	-9537
였으나	-9538
오르는	-9539
왔어요	-9540
이쁘다	-9541
이상은	-9542
인지는	-9543
점이면	-9544
키드먼	-9545
하나의	-9546
하더니	-9547
해준다	-9548
,...	-9549
▁The	-9550
▁가까이	-9551
▁가볍고	-9552
▁가슴찡	-9553
▁가치를	-9554
▁과정이	-9555
▁관심을	-9556
▁그들은	-9557
▁놀라울	-9558
▁눈물흘	-9559
▁단체로	-9560
▁더럽고	-9561
▁들어서	-9562
▁때우기	-9563
▁떨어져	-9564
▁마스터	-9565
▁막장의	-9566
▁망쳐놓	-9567
▁매트릭	-9568
▁못된다	-9569
▁묘하게	-9570
▁무간도	-9571
▁미래를	-9572
▁미장센	-9573
▁베리굿	-9574
▁베트남	-9575
▁별루다	-9576
▁봐야함	-9577
▁불쾌한	-9578
▁사라져	-9579
▁사라진	-9580
▁사람과	-9581
▁산만한	-9582
▁상상을	-9583
▁상처를	-9584
▁설정과	-9585
▁성인이	-9586
▁심심한	-9587
▁싶어서	-9588
▁싶지만	-9589
▁아니냐	-9590
▁안난다	-9591
▁어쨌든	-9592
▁없어도	-9593
▁역사적	-9594
▁연출을	-9595
▁영화고	-9596
▁영화본	-9597
▁예쁘게	-9598
▁음악의	-9599
▁이런것	-9600
▁이름값	-9601
▁일어날	-9602
▁있었고	-9603
▁작가의	-9604
▁장근석	-9605
▁장면의	-9606
▁전설이	-9607
▁제목과	-9608
▁초반의	-9609
▁최진실	-9610
▁치밀한	-9611
▁케이지	-9612
▁코믹한	-9613
▁한지민	-9614
▁허접함	-9615
▁황비홍	-9616
▁흥해라	-9617
떨어지는	-9618
아아아아	-9619
이영화는	-9620
재미있는	-9621
점정도가	-9622
하지말고	-9623
~!!!!	-9624
▁감독님의	-9625
▁개봉하는	-9626
▁고등학생	-9627
▁공감가는	-9628
▁관객에게	-9629
▁그래픽은	-9630
▁기대보다	-9631
▁뜬금없이	-9632
▁마지막의	-9633
▁막장으로	-9634
▁만들어준	-9635
▁말아먹은	-9636
▁맥라이언	-9637
▁메시지가	-9638
▁모르겟다	-9639
▁무서웠음	-9640
▁미치겠다	-9641
▁사랑스런	-9642
▁샤론스톤	-9643
▁소름돋는	-9644
▁실화라서	-9645
▁심심할때	-9646
▁아닌가요	-9647
▁아프리카	-9648
▁안봤으면	-9649
▁우리들의	-9650
▁이정도는	-9651
▁이정도로	-9652
▁재난영화	-9653
▁재밌구만	-9654
▁재밌었고	-9655
▁짱입니다	-9656
▁촌스러운	-9657
▁톰크루즈	-9658
▁팬이라면	-9659
▁필요할까	-9660
▁해주세요	-9661
▁헛웃음만	-9662
▁화려하고	-9663
▁흥미롭고	-9664
;;;;;;	-9665
~~~~~~	-9666
▁기대합니다	-9667
▁볼만했는데	-9668
▁영화자체는	-9669
▁오랜만이다	-9670
▁이런영화에	-9671
▁재미있던데	-9672
.~	-9673
40	-9674
>>	-9675
_+	-9676
bc	-9677
ᄀᄀ	-9678
▁*	-9679
▁ᅢ	-9680
▁균	-9681
▁뜯	-9682
▁며	-9683
▁빗	-9684
▁셋	-9685
▁쬐	-9686
▁캠	-9687
가치	-9688
거림	-9689
거에	-9690
겁게	-9691
게도	-9692
겠군	-9693
격이	-9694
고를	-9695
급의	-9696
기준	-9697
남주	-9698
너의	-9699
니잼	-9700
대에	-9701
뒤에	-9702
때메	-9703
맞추	-9704
메다	-9705
보비	-9706
봤어	-9707
블루	-9708
사나	-9709
선수	-9710
식상	-9711
안함	-9712
야만	-9713
유쾌	-9714
유혼	-9715
이미	-9716
일라	-9717
자로	-9718
작은	-9719
잤다	-9720
정보	-9721
젝트	-9722
진구	-9723
쩌네	-9724
천재	-9725
케팅	-9726
특집	-9727
틈이	-9728
팬더	-9729
하곤	-9730
하단	-9731
하이	-9732
한편	-9733
허허	-9734
현이	-9735
훨씬	-9736
..3	-9737
ᄍᄍᄍ	-9738
▁28	-9739
▁be	-9740
▁my	-9741
▁st	-9742
▁간직	-9743
▁갑갑	-9744
▁같고	-9745
▁객관	-9746
▁경이	-9747
▁고찰	-9748
▁괜춘	-9749
▁괴수	-9750
▁구할	-9751
▁김윤	-9752
▁나두	-9753
▁날아	-9754
▁납치	-9755
▁낮추	-9756
▁내놓	-9757
▁넘겨	-9758
▁댄스	-9759
▁던져	-9760
▁들여	-9761
▁딸이	-9762
▁레즈	-9763
▁르네	-9764
▁마크	-9765
▁문근	-9766
▁박해	-9767
▁발음	-9768
▁보네	-9769
▁봣다	-9770
▁분량	-9771
▁불행	-9772
▁색깔	-9773
▁숨어	-9774
▁시바	-9775
▁실컷	-9776
▁심히	-9777
▁싶음	-9778
▁아키	-9779
▁안겨	-9780
▁알지	-9781
▁암이	-9782
▁애가	-9783
▁어케	-9784
▁없애	-9785
▁에니	-9786
▁연상	-9787
▁연습	-9788
▁예산	-9789
▁온다	-9790
▁욕을	-9791
▁유혹	-9792
▁이태	-9793
▁일을	-9794
▁있으	-9795
▁자리	-9796
▁잘나	-9797
▁재주	-9798
▁저렴	-9799
▁정이	-9800
▁주목	-9801
▁치열	-9802
▁커녕	-9803
▁코스	-9804
▁크로	-9805
▁티가	-9806
▁파란	-9807
▁평을	-9808
▁포스	-9809
▁한테	-9810
▁해줄	-9811
▁핸드	-9812
♡♡♡	-9813
게다가	-9814
겠더라	-9815
귀여워	-9816
네이버	-9817
놈들이	-9818
는거다	-9819
러워서	-9820
로서는	-9821
말고는	-9822
못하는	-9823
볼려고	-9824
사람을	-9825
수준이	-9826
아무리	-9827
안되고	-9828
액션이	-9829
어가는	-9830
에다가	-9831
에서만	-9832
외에는	-9833
이구만	-9834
인간의	-9835
있었던	-9836
점주고	-9837
졌지만	-9838
지모르	-9839
진정한	-9840
판으로	-9841
평점을	-9842
하나로	-9843
하는가	-9844
하려면	-9845
1010	-9846
bbbb	-9847
good	-9848
▁가깝다	-9849
▁가르쳐	-9850
▁거기다	-9851
▁거대한	-9852
▁결국엔	-9853
▁관객의	-9854
▁구성은	-9855
▁구역질	-9856
▁권상우	-9857
▁김혜수	-9858
▁꿈꾸는	-9859
▁느리고	-9860
▁더빙은	-9861
▁런닝맨	-9862
▁마음의	-9863
▁머리를	-9864
▁못생겼	-9865
▁문제는	-9866
▁뭡니까	-9867
▁배우만	-9868
▁보기싫	-9869
▁보네요	-9870
▁봤다니	-9871
▁부분은	-9872
▁빠순이	-9873
▁사투리	-9874
▁사회적	-9875
▁서스펜	-9876
▁소리가	-9877
▁신파극	-9878
▁아빠가	-9879
▁아쉽네	-9880
▁알아야	-9881
▁애절한	-9882
▁약간은	-9883
▁어떠한	-9884
▁영향을	-9885
▁영화이	-9886
▁영화제	-9887
▁오래전	-9888
▁울었음	-9889
▁원작과	-9890
▁유지태	-9891
▁이모양	-9892
▁이상도	-9893
▁이해도	-9894
▁일본인	-9895
▁일상을	-9896
▁일점도	-9897
▁잘생김	-9898
▁재미업	-9899
▁재밌긴	-9900
▁정신차	-9901
▁졸려서	-9902
▁좋았어	-9903
▁중딩때	-9904
▁처음임	-9905
▁초능력	-9906
▁촌스럽	-9907
▁최초로	-9908
▁충실한	-9909
▁편인데	-9910
▁한국어	-9911
▁해리슨	-9912
▁혼자서	-9913
▁후회할	-9914
시리즈는	-9915
재미없네	-9916
점대라니	-9917
점이라니	-9918
▁2002	-9919
▁겨울왕국	-9920
▁결말까지	-9921
▁관람불가	-9922
▁나에게는	-9923
▁너무좋다	-9924
▁능가하는	-9925
▁드라마에	-9926
▁만들겠다	-9927
▁만들려고	-9928
▁메시지를	-9929
▁별로지만	-9930
▁보기에도	-9931
▁볼거리가	-9932
▁봐야한다	-9933
▁실망했다	-9934
▁아깝다는	-9935
▁알았더니	-9936
▁어릴적에	-9937
▁여배우들	-9938
▁영상미는	-9939
▁으리으리	-9940
▁재밌지도	-9941
▁잼있었음	-9942
▁지들끼리	-9943
▁참신하고	-9944
▁형편없다	-9945
▁후반부에	-9946
▁휴머니즘	-9947
▁뒤로갈수록	-9948
▁뮤직비디오	-9949
▁생각나네요	-9950
▁영화자체가	-9951
▁응원합니다	-9952
▁자연스러운	-9953
▁재미가없다	-9954
▁정말재밌게	-9955
▁할말이없다	-9956
▁무슨내용인지	-9957
▁최고의드라마	-9958
."	-9959
ff	-9960
op	-9961
▁낸	-9962
▁놔	-9963
▁뼈	-9964
▁숭	-9965
▁쉣	-9966
▁왈	-9967
▁콧	-9968
▁퀸	-9969
▁팽	-9970
가루	-9971
강우	-9972
겁다	-9973
경을	-9974
교육	-9975
교훈	-9976
금을	-9977
기네	-9978
나왓	-9979
날에	-9980
다코	-9981
달러	-9982
달이	-9983
대작	-9984
독립	-9985
돼지	-9986
따름	-9987
려야	-9988
렬한	-9989
론이	-9990
많고	-9991
말까	-9992
메오	-9993
모니	-9994
보잡	-9995
볼까	-9996
셔요	-9997
소니	-9998
소사	-9999
속이	-10000
슬픈	-10001
시킬	-10002
실력	-10003
아놔	-10004
아닐	-10005
안습	-10006
암튼	-10007
앞에	-10008
어떤	-10009
없냐	-10010
왕짱	-10011
위로	-10012
은혜	-10013
이젠	-10014
인상	-10015
진지	-10016
체를	-10017
타클	-10018
파서	-10019
퍼스	-10020
프트	-10021
피의	-10022
행크	-10023
현우	-10024
호는	-10025
홍보	-10026
흥행	-10027
힌다	-10028
ore	-10029
▁가만	-10030
▁걱정	-10031
▁검은	-10032
▁고급	-10033
▁고작	-10034
▁고현	-10035
▁괴롭	-10036
▁그땐	-10037
▁근육	-10038
▁껏다	-10039
▁나고	-10040
▁날로	-10041
▁낫네	-10042
▁낳은	-10043
▁냉정	-10044
▁너희	-10045
▁넘은	-10046
▁높냐	-10047
▁눈부	-10048
▁니들	-10049
▁드리	-10050
▁때론	-10051
▁마구	-10052
▁말지	-10053
▁맞음	-10054
▁멘붕	-10055
▁모순	-10056
▁모여	-10057
▁못본	-10058
▁무덤	-10059
▁무얼	-10060
▁묻혀	-10061
▁믿지	-10062
▁박상	-10063
▁발레	-10064
▁방어	-10065
▁버릴	-10066
▁번역	-10067
▁보진	-10068
▁볼껄	-10069
▁분이	-10070
▁붉은	-10071
▁사토	-10072
▁상태	-10073
▁서서	-10074
▁성지	-10075
▁수애	-10076
▁실수	-10077
▁싫은	-10078
▁싶네	-10079
▁쏠쏠	-10080
▁쓰지	-10081
▁애정	-10082
▁어딨	-10083
▁어서	-10084
▁오마	-10085
▁와서	-10086
▁울림	-10087
▁웃길	-10088
▁위안	-10089
▁유부	-10090
▁으아	-10091
▁의학	-10092
▁이재	-10093
▁이전	-10094
▁일관	-10095
▁잡는	-10096
▁장쯔	-10097
▁점은	-10098
▁정사	-10099
▁정통	-10100
▁조쉬	-10101
▁증명	-10102
▁진자	-10103
▁짐승	-10104
▁징징	-10105
▁찡한	-10106
▁처참	-10107
▁초기	-10108
▁치료	-10109
▁포함	-10110
▁하며	-10111
▁할거	-10112
▁할배	-10113
▁해외	-10114
▁해적	-10115
▁황금	-10116
▁히트	-10117
▁힐러	-10118
같은거	-10119
것같아	-10120
곱니다	-10121
나오면	-10122
년동안	-10123
만드네	-10124
멋대로	-10125
무섭다	-10126
발이고	-10127
심하다	-10128
아닌듯	-10129
어야할	-10130
이건뭐	-10131
이구나	-10132
잔잔한	-10133
점수는	-10134
조차도	-10135
주의자	-10136
하고도	-10137
하군요	-10138
하시고	-10139
한거지	-10140
할수도	-10141
히어로	-10142
▁가득찬	-10143
▁갔는데	-10144
▁개봉을	-10145
▁개졸작	-10146
▁결론이	-10147
▁구리다	-10148
▁귀요미	-10149
▁극장서	-10150
▁기승전	-10151
▁끝내주	-10152
▁나았다	-10153
▁높네요	-10154
▁달리는	-10155
▁대단히	-10156
▁대학생	-10157
▁뛰어나	-10158
▁뜨거운	-10159
▁레이싱	-10160
▁로버츠	-10161
▁많네요	-10162
▁말해서	-10163
▁먹칠을	-10164
▁모자란	-10165
▁못생긴	-10166
▁못하겠	-10167
▁묵직한	-10168
▁뭐하냐	-10169
▁미치는	-10170
▁밑에분	-10171
▁배우로	-10172
▁범인이	-10173
▁별점을	-10174
▁보는줄	-10175
▁보자고	-10176
▁봐줄만	-10177
▁봤었던	-10178
▁부족함	-10179
▁빵터짐	-10180
▁사실이	-10181
▁성유리	-10182
▁속아서	-10183
▁수준급	-10184
▁슬래셔	-10185
▁슬프게	-10186
▁시시한	-10187
▁심각한	-10188
▁액션에	-10189
▁어드벤	-10190
▁여자애	-10191
▁예술을	-10192
▁오타쿠	-10193
▁웃음도	-10194
▁이동욱	-10195
▁이작품	-10196
▁일요일	-10197
▁있어도	-10198
▁장난감	-10199
▁장난해	-10200
▁재밌냐	-10201
▁저것도	-10202
▁전편에	-10203
▁조아요	-10204
▁주제는	-10205
▁주제에	-10206
▁지금껏	-10207
▁진리다	-10208
▁찌질한	-10209
▁초중반	-10210
▁최고지	-10211
▁컨저링	-10212
▁클린트	-10213
▁한없이	-10214
▁함부로	-10215
▁현실의	-10216
▁환상의	-10217
▁환타지	-10218
▁흘러도	-10219
보여주는	-10220
볼때마다	-10221
수가없다	-10222
재미있고	-10223
▁가슴으로	-10224
▁기분좋은	-10225
▁나비효과	-10226
▁너무재밌	-10227
▁눈물난다	-10228
▁다른영화	-10229
▁당시에는	-10230
▁드림웍스	-10231
▁멋있었다	-10232
▁밋밋하고	-10233
▁발연기에	-10234
▁봐야겠다	-10235
▁분위기를	-10236
▁분위기의	-10237
▁스릴러가	-10238
▁신기하다	-10239
▁신선했다	-10240
▁아이러니	-10241
▁안나와서	-10242
▁안봤는데	-10243
▁어느정도	-10244
▁어린아이	-10245
▁어머니의	-10246
▁에일리언	-10247
▁영화관에	-10248
▁울었네요	-10249
▁움직이는	-10250
▁이기적인	-10251
▁인내심을	-10252
▁작위적인	-10253
▁작품성이	-10254
▁작품이라	-10255
▁재밌지만	-10256
▁잼있는데	-10257
▁저평가된	-10258
▁전개되는	-10259
▁중간부터	-10260
▁짜증나네	-10261
▁짱이에요	-10262
▁판타스틱	-10263
▁포스터는	-10264
▁후회하지	-10265
영화관에서	-10266
▁괜찮았어요	-10267
▁너무좋아요	-10268
▁러닝타임이	-10269
▁볼만하던데	-10270
▁서프라이즈	-10271
▁시나리오에	-10272
▁시나리오와	-10273
▁작품이라고	-10274
▁정신건강에	-10275
▁좋아하시는	-10276
▁주인공들의	-10277
▁처음이네요	-10278
▁친구들이랑	-10279
▁크리스토퍼	-10280
▁현실적이고	-10281
▁지루하지않고	-10282
0^	-10283
14	-10284
_=	-10285
ht	-10286
~7	-10287
▁)	-10288
▁꺄	-10289
▁밉	-10290
▁밖	-10291
▁뺨	-10292
▁쏙	-10293
▁쯤	-10294
▁퓨	-10295
▁헷	-10296
가진	-10297
게리	-10298
구를	-10299
구조	-10300
그게	-10301
날이	-10302
내놔	-10303
데기	-10304
데로	-10305
데스	-10306
디로	-10307
란걸	-10308
래원	-10309
로그	-10310
로얄	-10311
마라	-10312
마른	-10313
마의	-10314
많다	-10315
맛에	-10316
보냐	-10317
부에	-10318
블록	-10319
비교	-10320
비는	-10321
사진	-10322
사한	-10323
설마	-10324
스라	-10325
슬픔	-10326
시티	-10327
양이	-10328
어낸	-10329
없구	-10330
엇던	-10331
예상	-10332
왔던	-10333
우니	-10334
운이	-10335
워야	-10336
월드	-10337
을거	-10338
이것	-10339
인척	-10340
일으	-10341
장은	-10342
잼씀	-10343
저는	-10344
전기	-10345
점임	-10346
존재	-10347
죽음	-10348
집중	-10349
쩔어	-10350
책임	-10351
쳐도	-10352
치네	-10353
카이	-10354
칼렛	-10355
타는	-10356
터가	-10357
통쾌	-10358
편만	-10359
피는	-10360
피를	-10361
할게	-10362
all	-10363
▁+1	-10364
▁22	-10365
▁sh	-10366
▁vs	-10367
▁가미	-10368
▁걸레	-10369
▁걸린	-10370
▁결합	-10371
▁경제	-10372
▁고발	-10373
▁고정	-10374
▁교회	-10375
▁구멍	-10376
▁구분	-10377
▁권력	-10378
▁극본	-10379
▁극찬	-10380
▁글로	-10381
▁기법	-10382
▁낚임	-10383
▁낮춰	-10384
▁너는	-10385
▁높이	-10386
▁되서	-10387
▁될듯	-10388
▁될수	-10389
▁디아	-10390
▁땀을	-10391
▁똥칠	-10392
▁라스	-10393
▁먼지	-10394
▁메가	-10395
▁못살	-10396
▁미션	-10397
▁반해	-10398
▁발랄	-10399
▁버리	-10400
▁부조	-10401
▁불친	-10402
▁비하	-10403
▁뻔함	-10404
▁살리	-10405
▁생략	-10406
▁숀펜	-10407
▁스탤	-10408
▁실종	-10409
▁안웃	-10410
▁안해	-10411
▁알렉	-10412
▁알리	-10413
▁야마	-10414
▁오싹	-10415
▁우스	-10416
▁운동	-10417
▁워낙	-10418
▁이명	-10419
▁인줄	-10420
▁잘보	-10421
▁잠든	-10422
▁재기	-10423
▁잼따	-10424
▁저러	-10425
▁젊음	-10426
▁정점	-10427
▁조인	-10428
▁존스	-10429
▁줬다	-10430
▁쥐어	-10431
▁진솔	-10432
▁천사	-10433
▁체험	-10434
▁추잡	-10435
▁치는	-10436
▁친일	-10437
▁크리	-10438
▁파트	-10439
▁프렌	-10440
▁향해	-10441
▁호텔	-10442
▁후진	-10443
▁희한	-10444
▁힙합	-10445
그런데	-10446
나저나	-10447
녀유혼	-10448
년대의	-10449
된영화	-10450
들어서	-10451
렸는데	-10452
로버츠	-10453
리우드	-10454
몰입도	-10455
묘하게	-10456
무서운	-10457
반전이	-10458
버렸음	-10459
보여주	-10460
봅시다	-10461
봤는지	-10462
봤더니	-10463
슬프고	-10464
신분들	-10465
알바들	-10466
었어도	-10467
장면도	-10468
주의를	-10469
줄거리	-10470
집에서	-10471
테이크	-10472
편보단	-10473
하네여	-10474
한건가	-10475
합시다	-10476
했구나	-10477
-_-;	-10478
▁각본이	-10479
▁감동에	-10480
▁공중파	-10481
▁과거를	-10482
▁그녀는	-10483
▁그레이	-10484
▁기분만	-10485
▁기타노	-10486
▁김남길	-10487
▁나와라	-10488
▁나이에	-10489
▁나한테	-10490
▁남았다	-10491
▁내생의	-10492
▁노래만	-10493
▁노력이	-10494
▁다른거	-10495
▁단언컨	-10496
▁대박임	-10497
▁돌리도	-10498
▁듭니다	-10499
▁따분한	-10500
▁떨어진	-10501
▁만나는	-10502
▁말아라	-10503
▁모처럼	-10504
▁몬스터	-10505
▁무리수	-10506
▁민망한	-10507
▁받아서	-10508
▁보기전	-10509
▁본적이	-10510
▁불륜을	-10511
▁비정상	-10512
▁비추천	-10513
▁송혜교	-10514
▁스칼렛	-10515
▁스텝업	-10516
▁시대적	-10517
▁신세계	-10518
▁씹노잼	-10519
▁안든다	-10520
▁안들어	-10521
▁않았음	-10522
▁영화좀	-10523
▁오인혜	-10524
▁와닿지	-10525
▁왜이럼	-10526
▁외에는	-10527
▁용서가	-10528
▁유아용	-10529
▁이건머	-10530
▁있는듯	-10531
▁저절로	-10532
▁정도다	-10533
▁조금씩	-10534
▁조기종	-10535
▁조재현	-10536
▁좋아함	-10537
▁줄리엣	-10538
▁지하철	-10539
▁채널돌	-10540
▁천재다	-10541
▁첨이네	-10542
▁최강의	-10543
▁최고라	-10544
▁충격을	-10545
▁충무로	-10546
▁코믹물	-10547
▁톰행크	-10548
▁하던가	-10549
▁하던데	-10550
▁행복을	-10551
▁현실에	-10552
▁황정민	-10553
▁힘들어	-10554
나는영화	-10555
남는영화	-10556
대단하다	-10557
드라마를	-10558
봣습니다	-10559
이었는데	-10560
잼있어요	-10561
점준거중	-10562
하겠지만	-10563
하기까지	-10564
해지네요	-10565
,,,,,	-10566
....?	-10567
▁1000	-10568
▁love	-10569
▁가슴따뜻	-10570
▁감성팔이	-10571
▁끝내주는	-10572
▁노잼이다	-10573
▁등장하는	-10574
▁따뜻하게	-10575
▁로드무비	-10576
▁만드네요	-10577
▁메세지가	-10578
▁명작인데	-10579
▁모든것을	-10580
▁몰랐는데	-10581
▁미스테리	-10582
▁배우들로	-10583
▁보고있는	-10584
▁보냅니다	-10585
▁본영화중	-10586
▁분위기와	-10587
▁불편하다	-10588
▁생각해서	-10589
▁스릴러를	-10590
▁스포일러	-10591
▁시사회로	-10592
▁실화라는	-10593
▁쓰레기도	-10594
▁알겠지만	-10595
▁알바들이	-10596
▁알수있는	-10597
▁어색하다	-10598
▁없다는게	-10599
▁연기자들	-10600
▁영화로는	-10601
▁영화만들	-10602
▁왠만해선	-10603
▁욕나오는	-10604
▁원작보다	-10605
▁유쾌하다	-10606
▁이어지는	-10607
▁이해가안	-10608
▁있겠지만	-10609
▁재밌게봄	-10610
▁잼있었다	-10611
▁정신나간	-10612
▁제목부터	-10613
▁좋아하고	-10614
▁좋아하지	-10615
▁초반부터	-10616
▁코미디의	-10617
▁표현했다	-10618
보고있어요	-10619
▁드라마라고	-10620
▁로그인하게	-10621
▁뭔내용인지	-10622
▁보고있어요	-10623
▁아름다웠던	-10624
▁억지스럽다	-10625
▁엑소시스트	-10626
▁재미없던데	-10627
▁개인적으로는	-10628
▁다시보고싶은	-10629
▁말이필요없음	-10630
▁우리나라에서	-10631
CN	-10632
ak	-10633
us	-10634
ᄅᄀ	-10635
▁갇	-10636
▁낄	-10637
▁넋	-10638
▁맺	-10639
▁몫	-10640
▁뽕	-10641
▁샀	-10642
▁쉐	-10643
▁엇	-10644
▁줫	-10645
▁찔	-10646
가야	-10647
갖고	-10648
걸이	-10649
겠고	-10650
결이	-10651
경은	-10652
경의	-10653
광수	-10654
구구	-10655
군이	-10656
근래	-10657
금지	-10658
기리	-10659
날때	-10660
너스	-10661
능한	-10662
니스	-10663
도전	-10664
동엽	-10665
레쉬	-10666
릴라	-10667
명은	-10668
미녀	-10669
바다	-10670
반복	-10671
방의	-10672
봤을	-10673
봤자	-10674
사무	-10675
성공	-10676
세이	-10677
섹스	-10678
소를	-10679
스틸	-10680
아담	-10681
앓이	-10682
약간	-10683
어마	-10684
어쩔	-10685
엉성	-10686
여도	-10687
연애	-10688
왜곡	-10689
왜케	-10690
용이	-10691
우면	-10692
유천	-10693
이즈	-10694
일단	-10695
일은	-10696
자다	-10697
졸잼	-10698
죽이	-10699
진리	-10700
짝퉁	-10701
카메	-10702
크가	-10703
클럽	-10704
해여	-10705
흐름	-10706
희는	-10707
-.-	-10708
///	-10709
1,2	-10710
OST	-10711
ent	-10712
uck	-10713
▁1,	-10714
▁2%	-10715
▁no	-10716
▁각각	-10717
▁감당	-10718
▁강시	-10719
▁강혜	-10720
▁갖추	-10721
▁공존	-10722
▁그와	-10723
▁극과	-10724
▁극한	-10725
▁김영	-10726
▁난감	-10727
▁난국	-10728
▁넘는	-10729
▁눈높	-10730
▁눈만	-10731
▁돌프	-10732
▁됐다	-10733
▁똑똑	-10734
▁로긴	-10735
▁리플	-10736
▁망함	-10737
▁메리	-10738
▁모건	-10739
▁모호	-10740
▁물건	-10741
▁미키	-10742
▁미흡	-10743
▁별이	-10744
▁부자	-10745
▁비싼	-10746
▁빠지	-10747
▁사춘	-10748
▁생존	-10749
▁선수	-10750
▁성괴	-10751
▁성냥	-10752
▁성적	-10753
▁수다	-10754
▁수치	-10755
▁스탈	-10756
▁스톤	-10757
▁싶었	-10758
▁싸울	-10759
▁아야	-10760
▁안젤	-10761
▁야이	-10762
▁얻어	-10763
▁연장	-10764
▁연주	-10765
▁영활	-10766
▁올인	-10767
▁외화	-10768
▁요약	-10769
▁우롱	-10770
▁으로	-10771
▁이선	-10772
▁장미	-10773
▁저게	-10774
▁저의	-10775
▁조조	-10776
▁종북	-10777
▁종영	-10778
▁주면	-10779
▁죽인	-10780
▁지키	-10781
▁짧고	-10782
▁총을	-10783
▁출현	-10784
▁치곤	-10785
▁특징	-10786
▁퍼즐	-10787
▁평론	-10788
▁필수	-10789
▁한결	-10790
▁했네	-10791
▁현빈	-10792
▁환불	-10793
▁활약	-10794
▁흔해	-10795
▁히로	-10796
가치가	-10797
겠는가	-10798
기라도	-10799
기만한	-10800
남는다	-10801
놈들은	-10802
다는것	-10803
됐는데	-10804
떨어진	-10805
리고싶	-10806
마음에	-10807
만드나	-10808
무서워	-10809
받아서	-10810
버렸네	-10811
봤을까	-10812
순없지	-10813
안타까	-10814
었다니	-10815
에게서	-10816
을수가	-10817
을수도	-10818
재밋고	-10819
점이야	-10820
주는게	-10821
편인데	-10822
하시면	-10823
할말이	-10824
해야할	-10825
해졌다	-10826
▁(10	-10827
▁and	-10828
▁kbs	-10829
▁강하게	-10830
▁공감은	-10831
▁괴물이	-10832
▁구성과	-10833
▁그들을	-10834
▁그랬다	-10835
▁그리운	-10836
▁기괴한	-10837
▁김하늘	-10838
▁깊이가	-10839
▁끝났다	-10840
▁나가는	-10841
▁나이트	-10842
▁남자들	-10843
▁넘친다	-10844
▁대사는	-10845
▁됐는데	-10846
▁되는거	-10847
▁되다니	-10848
▁되어서	-10849
▁뒤집어	-10850
▁따듯한	-10851
▁로멘틱	-10852
▁만점을	-10853
▁망쳤다	-10854
▁망치는	-10855
▁멋있음	-10856
▁모성애	-10857
▁몸부림	-10858
▁미소를	-10859
▁미쳤다	-10860
▁박신혜	-10861
▁별로네	-10862
▁보니깐	-10863
▁복수를	-10864
▁브레이	-10865
▁사로잡	-10866
▁색감이	-10867
▁생각한	-10868
▁소년의	-10869
▁시간의	-10870
▁신선함	-10871
▁쒸레기	-10872
▁아니죠	-10873
▁아닌것	-10874
▁암울한	-10875
▁액션신	-10876
▁엄마의	-10877
▁영혼을	-10878
▁원숭이	-10879
▁유머가	-10880
▁음악만	-10881
▁음악에	-10882
▁이름만	-10883
▁익숙한	-10884
▁있었나	-10885
▁잘표현	-10886
▁잼있어	-10887
▁적절히	-10888
▁주연의	-10889
▁진수를	-10890
▁찍어라	-10891
▁첨본다	-10892
▁청춘의	-10893
▁크루즈	-10894
▁킹왕짱	-10895
▁태어난	-10896
▁터지는	-10897
▁퍼펙트	-10898
▁풀어나	-10899
▁힘든데	-10900
▁힘들게	-10901
만든영화	-10902
사랑해요	-10903
생각하게	-10904
액션영화	-10905
영화네요	-10906
영화중에	-10907
이었어요	-10908
재밌었음	-10909
줄알았다	-10910
짜증난다	-10911
하지않고	-10912
-_-;;	-10913
..!!!	-10914
▁2013	-10915
▁꼭보시길	-10916
▁나발이고	-10917
▁난해하다	-10918
▁남자들의	-10919
▁대사들이	-10920
▁만들어졌	-10921
▁메세지도	-10922
▁몇번이고	-10923
▁못미치는	-10924
▁무언가가	-10925
▁별로던데	-10926
▁보기드문	-10927
▁보는듯한	-10928
▁분위기도	-10929
▁생생하게	-10930
▁샤를리즈	-10931
▁성장영화	-10932
▁솔직하게	-10933
▁숨막히는	-10934
▁스타일이	-10935
▁식상하고	-10936
▁쓰레기로	-10937
▁아이들도	-10938
▁않았으면	-10939
▁알게해준	-10940
▁알수없는	-10941
▁어중간한	-10942
▁없었는데	-10943
▁여고괴담	-10944
▁영화내내	-10945
▁영화로서	-10946
▁오리지널	-10947
▁왜이러냐	-10948
▁잘생기고	-10949
▁최곱니다	-10950
▁풋풋하고	-10951
▁허술하고	-10952
▁허술하다	-10953
▁현실이다	-10954
영화제에서	-10955
▁것만으로도	-10956
▁공포영화를	-10957
▁공포영화의	-10958
▁끝날때까지	-10959
▁내용도없고	-10960
▁니콜키드먼	-10961
▁드라마에요	-10962
▁마이너스는	-10963
▁모든면에서	-10964
▁소름돋는다	-10965
▁이런식으로	-10966
▁재미더럽게	-10967
▁재밌음ᄏᄏ	-10968
▁죽여버리고	-10969
▁지루하네요	-10970
▁킬링타임도	-10971
▁기대안했는데	-10972
▁만들어주세요	-10973
▁아름다운영화	-10974
▁기대안하고봤는데	-10975
ᄏᄏᄏᄏᄏᄏᄏᄏᄏᄏᄏᄏ	-10976
▁ᄏᄏᄏᄏᄏᄏᄏᄏᄏᄏᄏᄏᄏᄏ	-10977
56	-10978
na	-10979
ra	-10980
ul	-10981
~8	-10982
▁눌	-10983
▁뺏	-10984
▁썸	-10985
▁앗	-10986
▁혀	-10987
▁혜	-10988
개판	-10989
겠냐	-10990
고만	-10991
고생	-10992
구난	-10993
그닥	-10994
긍정	-10995
깜짝	-10996
껀데	-10997
께서	-10998
끝에	-10999
나를	-11000
년생	-11001
는걸	-11002
니슨	-11003
님을	-11004
단다	-11005
달까	-11006
대화	-11007
동을	-11008
디에	-11009
랑이	-11010
리브	-11011
마는	-11012
마니	-11013
말은	-11014
멸의	-11015
무어	-11016
미달	-11017
버렷	-11018
보일	-11019
보임	-11020
본방	-11021
부르	-11022
분히	-11023
불륜	-11024
비스	-11025
쁘다	-11026
살에	-11027
색이	-11028
생크	-11029
수종	-11030
스탈	-11031
시를	-11032
시즘	-11033
아버	-11034
알려	-11035
어느	-11036
어렵	-11037
역을	-11038
였을	-11039
올린	-11040
왠지	-11041
우와	-11042
우치	-11043
웃겼	-11044
위를	-11045
이연	-11046
이한	-11047
재가	-11048
진씨	-11049
질수	-11050
쩐지	-11051
차기	-11052
최강	-11053
키스	-11054
타르	-11055
트리	-11056
포장	-11057
해피	-11058
호사	-11059
홍콩	-11060
!!♥	-11061
200	-11062
^^;	-11063
▁ᄂᄂ	-11064
▁ᄆᄎ	-11065
▁ᄉᄀ	-11066
▁개발	-11067
▁경우	-11068
▁고로	-11069
▁광팬	-11070
▁국뽕	-11071
▁귀에	-11072
▁균형	-11073
▁기막	-11074
▁기차	-11075
▁김동	-11076
▁끊임	-11077
▁날라	-11078
▁남친	-11079
▁내놔	-11080
▁너도	-11081
▁넘기	-11082
▁느린	-11083
▁닌자	-11084
▁대세	-11085
▁더한	-11086
▁들려	-11087
▁마츠	-11088
▁맘이	-11089
▁맛에	-11090
▁몸에	-11091
▁못지	-11092
▁무관	-11093
▁무미	-11094
▁문학	-11095
▁배틀	-11096
▁베르	-11097
▁보물	-11098
▁보실	-11099
▁보임	-11100
▁볼꺼	-11101
▁볼줄	-11102
▁부디	-11103
▁사나	-11104
▁삼국	-11105
▁서사	-11106
▁세트	-11107
▁소나	-11108
▁스무	-11109
▁승부	-11110
▁시켜	-11111
▁신념	-11112
▁쌍벽	-11113
▁아가	-11114
▁약해	-11115
▁어벤	-11116
▁어의	-11117
▁없구	-11118
▁에디	-11119
▁오리	-11120
▁요구	-11121
▁우수	-11122
▁우익	-11123
▁웬만	-11124
▁은퇴	-11125
▁이룬	-11126
▁이문	-11127
▁저희	-11128
▁절반	-11129
▁증거	-11130
▁지배	-11131
▁진화	-11132
▁짱나	-11133
▁철저	-11134
▁치명	-11135
▁쿠엔	-11136
▁크고	-11137
▁타락	-11138
▁타잔	-11139
▁파악	-11140
▁평작	-11141
▁한글	-11142
▁한표	-11143
▁해학	-11144
▁했어	-11145
▁허준	-11146
▁호소	-11147
▁활용	-11148
▁흠뻑	-11149
▁희극	-11150
감동을	-11151
거든요	-11152
귀엽다	-11153
극장판	-11154
녀석들	-11155
다는건	-11156
도없는	-11157
도좋고	-11158
듯하다	-11159
라는걸	-11160
로서의	-11161
맞추기	-11162
빠지는	-11163
사람만	-11164
성있는	-11165
십시오	-11166
에서야	-11167
연기짱	-11168
올시다	-11169
우이웃	-11170
위해서	-11171
으면좋	-11172
이라곤	-11173
이유가	-11174
작이라	-11175
전개도	-11176
죽이고	-11177
치도록	-11178
편보고	-11179
평점에	-11180
할정도	-11181
해주고	-11182
..10	-11183
zzzz	-11184
▁198	-11185
▁가끔씩	-11186
▁가는줄	-11187
▁가져다	-11188
▁간간히	-11189
▁감독아	-11190
▁개명작	-11191
▁결말에	-11192
▁고마운	-11193
▁관객은	-11194
▁그것은	-11195
▁그림이	-11196
▁그만좀	-11197
▁기억도	-11198
▁김강우	-11199
▁끝나지	-11200
▁나오냐	-11201
▁나중엔	-11202
▁넘치고	-11203
▁다시보	-11204
▁다음에	-11205
▁다있어	-11206
▁달달한	-11207
▁담백한	-11208
▁답답함	-11209
▁당신을	-11210
▁대사를	-11211
▁동심을	-11212
▁똑같다	-11213
▁리얼한	-11214
▁마음은	-11215
▁많지만	-11216
▁말하면	-11217
▁모두다	-11218
▁미국은	-11219
▁미안해	-11220
▁반전과	-11221
▁배경과	-11222
▁보라는	-11223
▁보지않	-11224
▁부르는	-11225
▁사회의	-11226
▁살아야	-11227
▁서부극	-11228
▁세계를	-11229
▁시걸의	-11230
▁시청자	-11231
▁신들린	-11232
▁심했다	-11233
▁쌩뚱맞	-11234
▁아침에	-11235
▁안성기	-11236
▁애니로	-11237
▁애니를	-11238
▁연기나	-11239
▁연기한	-11240
▁연출의	-11241
▁열정이	-11242
▁영화평	-11243
▁올만에	-11244
▁이들이	-11245
▁이러냐	-11246
▁이순신	-11247
▁이연희	-11248
▁이후에	-11249
▁인물들	-11250
▁있는게	-11251
▁잘했다	-11252
▁장르에	-11253
▁재밋네	-11254
▁전기세	-11255
▁전도연	-11256
▁정도껏	-11257
▁제정신	-11258
▁조용한	-11259
▁주제도	-11260
▁죽을때	-11261
▁죽을뻔	-11262
▁죽음이	-11263
▁중국의	-11264
▁즐거워	-11265
▁즐기는	-11266
▁진실은	-11267
▁진하게	-11268
▁찝찝한	-11269
▁첫장면	-11270
▁출연료	-11271
▁충격적	-11272
▁펑펑울	-11273
▁포스가	-11274
▁표현해	-11275
▁플레이	-11276
▁하이킥	-11277
▁했는지	-11278
▁호기심	-11279
▁화난다	-11280
▁흥행을	-11281
기대하고	-11282
꼭보세요	-11283
만으로는	-11284
보고싶은	-11285
봤었는데	-11286
을정도로	-11287
이야기가	-11288
재미있어	-11289
주인공의	-11290
주인공이	-11291
하긴한데	-11292
하는것도	-11293
하시네요	-11294
▁감동으로	-11295
▁개봉하지	-11296
▁기분좋게	-11297
▁기억속에	-11298
▁깨달았다	-11299
▁깨알같은	-11300
▁남자배우	-11301
▁너무하다	-11302
▁돋보였던	-11303
▁뛰어나다	-11304
▁만들었던	-11305
▁말해주는	-11306
▁망한영화	-11307
▁멋지네요	-11308
▁멋집니다	-11309
▁메세지는	-11310
▁몽환적인	-11311
▁볼만하고	-11312
▁봤던영화	-11313
▁부끄럽다	-11314
▁부분에서	-11315
▁선생님이	-11316
▁시원하게	-11317
▁아름다워	-11318
▁아카데미	-11319
▁안타깝고	-11320
▁없었다면	-11321
▁여자들은	-11322
▁여자들의	-11323
▁연기까지	-11324
▁였습니다	-11325
▁영화들은	-11326
▁영화일뿐	-11327
▁용두사미	-11328
▁우리에게	-11329
▁이건아니	-11330
▁이해하고	-11331
▁이해하지	-11332
▁인상깊다	-11333
▁일본애니	-11334
▁재밋던데	-11335
▁전문성우	-11336
▁조잡하고	-11337
▁존재하는	-11338
▁좋아한다	-11339
▁주인공도	-11340
▁중에서도	-11341
▁캐릭터와	-11342
▁퀄리티가	-11343
▁토요명화	-11344
▁해도해도	-11345
▁후반으로	-11346
▁후회한다	-11347
재미없어요	-11348
...!!!	-11349
▁감동이네요	-11350
▁개연성없는	-11351
▁괜찮은영화	-11352
▁나도모르게	-11353
▁내용이지만	-11354
▁더럽게없다	-11355
▁드라마였다	-11356
▁만들었네요	-11357
▁보여줬는데	-11358
▁사랑입니다	-11359
▁아름답네요	-11360
▁이건아니다	-11361
▁이스트우드	-11362
▁일본영화의	-11363
▁재밌게봤다	-11364
▁적나라하게	-11365
▁중간중간에	-11366
▁지루하기도	-11367
▁최악입니다	-11368
▁감동적이예요	-11369
▁브루스윌리스	-11370
▁인상적이었다	-11371
▁재밌게봤습니다	-11372
▁~~~~~~~~	-11373
ᄅᄅ	-11374
▁ᅡ	-11375
▁겹	-11376
▁낼	-11377
▁덧	-11378
▁뚱	-11379
▁랄	-11380
▁솜	-11381
▁썅	-11382
▁얽	-11383
▁툭	-11384
▁훼	-11385
가다	-11386
각기	-11387
개연	-11388
겁고	-11389
곡이	-11390
구석	-11391
국이	-11392
군의	-11393
굳굳	-11394
그지	-11395
기스	-11396
끄고	-11397
남아	-11398
남은	-11399
내라	-11400
노무	-11401
대요	-11402
더의	-11403
데도	-11404
돈다	-11405
랜든	-11406
러지	-11407
레미	-11408
려니	-11409
렸어	-11410
론데	-11411
루니	-11412
맨이	-11413
몰랐	-11414
몸매	-11415
별점	-11416
분명	-11417
빼면	-11418
사극	-11419
상도	-11420
새벽	-11421
선가	-11422
설명	-11423
소나	-11424
순위	-11425
스티	-11426
신다	-11427
썼다	-11428
아마	-11429
애기	-11430
야오	-11431
양은	-11432
엉망	-11433
여야	-11434
여친	-11435
예고	-11436
예모	-11437
오름	-11438
와라	-11439
와요	-11440
요원	-11441
운다	-11442
유미	-11443
이시	-11444
일지	-11445
자신	-11446
전히	-11447
점점	-11448
지구	-11449
질때	-11450
찾기	-11451
코비	-11452
타령	-11453
포로	-11454
포스	-11455
피니	-11456
하든	-11457
황당	-11458
훈이	-11459
희망	-11460
--;	-11461
..-	-11462
ome	-11463
▁->	-11464
▁35	-11465
▁95	-11466
▁AV	-11467
▁ᅮᅲ	-11468
▁가다	-11469
▁가위	-11470
▁건진	-11471
▁고백	-11472
▁구원	-11473
▁귀가	-11474
▁기쁨	-11475
▁김성	-11476
▁꺼내	-11477
▁나나	-11478
▁남발	-11479
▁내눈	-11480
▁넘쳐	-11481
▁덕후	-11482
▁데미	-11483
▁동방	-11484
▁동의	-11485
▁뚝뚝	-11486
▁라면	-11487
▁막상	-11488
▁멀쩡	-11489
▁멤버	-11490
▁바꾼	-11491
▁발톱	-11492
▁버티	-11493
▁본인	-11494
▁부럽	-11495
▁부른	-11496
▁분장	-11497
▁비중	-11498
▁빌리	-11499
▁빛이	-11500
▁빼놓	-11501
▁산다	-11502
▁색다	-11503
▁수식	-11504
▁스며	-11505
▁썩어	-11506
▁썩은	-11507
▁쓰레	-11508
▁아랫	-11509
▁안성	-11510
▁어떻	-11511
▁어줍	-11512
▁언더	-11513
▁에너	-11514
▁예매	-11515
▁욕먹	-11516
▁우습	-11517
▁웃어	-11518
▁원망	-11519
▁유리	-11520
▁읽는	-11521
▁잃고	-11522
▁잇는	-11523
▁잘살	-11524
▁장백	-11525
▁저거	-11526
▁전무	-11527
▁전환	-11528
▁접근	-11529
▁정글	-11530
▁정답	-11531
▁제한	-11532
▁조디	-11533
▁조여	-11534
▁졸립	-11535
▁주체	-11536
▁지도	-11537
▁진보	-11538
▁짠한	-11539
▁짧게	-11540
▁초콜	-11541
▁총쏘	-11542
▁최저	-11543
▁추구	-11544
▁침몰	-11545
▁쿠바	-11546
▁태극	-11547
▁튀어	-11548
▁파리	-11549
▁피라	-11550
▁피어	-11551
▁필립	-11552
▁학살	-11553
▁한수	-11554
▁헷갈	-11555
▁호강	-11556
▁획을	-11557
▁효민	-11558
▁후한	-11559
▁후후	-11560
가족이	-11561
개드림	-11562
나와라	-11563
났는데	-11564
넘치고	-11565
마음을	-11566
맙시다	-11567
배우를	-11568
빠지게	-11569
생각해	-11570
셨어요	-11571
수밖에	-11572
안나오	-11573
요일이	-11574
을때가	-11575
이기에	-11576
이니까	-11577
인이다	-11578
있다는	-11579
잘하고	-11580
잼있게	-11581
좋았던	-11582
중인데	-11583
티비티	-11584
합니까	-11585
했더니	-11586
****	-11587
*^^*	-11588
▁OCN	-11589
▁것들을	-11590
▁고딩때	-11591
▁구리고	-11592
▁그녀가	-11593
▁그때의	-11594
▁기대해	-11595
▁기억은	-11596
▁기억을	-11597
▁꼬라지	-11598
▁나온거	-11599
▁나와는	-11600
▁남편이	-11601
▁노무현	-11602
▁눈빛이	-11603
▁느껴짐	-11604
▁다를게	-11605
▁더빙도	-11606
▁데려다	-11607
▁돋보인	-11608
▁돋보임	-11609
▁듣보잡	-11610
▁마케팅	-11611
▁말이다	-11612
▁맙소사	-11613
▁몇년이	-11614
▁모니카	-11615
▁못보고	-11616
▁무삭제	-11617
▁뭐이리	-11618
▁미치게	-11619
▁바꿔라	-11620
▁바란다	-11621
▁바보가	-11622
▁배경은	-11623
▁배급사	-11624
▁배우다	-11625
▁보기도	-11626
▁볼수가	-11627
▁봐야될	-11628
▁부자연	-11629
▁빈디젤	-11630
▁사나이	-11631
▁상영관	-11632
▁상황이	-11633
▁생각남	-11634
▁생생한	-11635
▁서서히	-11636
▁설레는	-11637
▁속편은	-11638
▁스릴감	-11639
▁신세경	-11640
▁신현준	-11641
▁실망한	-11642
▁아쉬울	-11643
▁아쉽긴	-11644
▁안드로	-11645
▁어느새	-11646
▁없더라	-11647
▁없잖아	-11648
▁역부족	-11649
▁완전한	-11650
▁외국인	-11651
▁우리네	-11652
▁원작도	-11653
▁웬만한	-11654
▁이라는	-11655
▁이번엔	-11656
▁있겠지	-11657
▁자체도	-11658
▁작품의	-11659
▁잔잔함	-11660
▁잘봤음	-11661
▁전쟁을	-11662
▁전쟁이	-11663
▁정치적	-11664
▁조승우	-11665
▁주려고	-11666
▁죽음의	-11667
▁중구난	-11668
▁줘야지	-11669
▁지못미	-11670
▁지브리	-11671
▁집중도	-11672
▁짜여진	-11673
▁짱인듯	-11674
▁짱짱짱	-11675
▁철없는	-11676
▁최고작	-11677
▁친구들	-11678
▁케서방	-11679
▁편집이	-11680
▁폴워커	-11681
▁피터팬	-11682
▁하나만	-11683
▁하는가	-11684
▁하려는	-11685
▁한계가	-11686
▁후반에	-11687
▁흥행에	-11688
▁희망이	-11689
기때문에	-11690
다는건지	-11691
들에게는	-11692
보지마셈	-11693
본영화중	-11694
부분에서	-11695
었을텐데	-11696
영화이다	-11697
왜이렇게	-11698
용으로도	-11699
점이라도	-11700
지금봐도	-11701
하지않은	-11702
~~!!!	-11703
▁2007	-11704
▁2008	-11705
▁2009	-11706
▁2011	-11707
▁개인적인	-11708
▁귀엽네요	-11709
▁기억하고	-11710
▁기억하는	-11711
▁나오는게	-11712
▁네이버는	-11713
▁다운로드	-11714
▁돈아까움	-11715
▁드라마임	-11716
▁따뜻하다	-11717
▁망했는지	-11718
▁명작이지	-11719
▁명작중의	-11720
▁몇번이나	-11721
▁몰입감이	-11722
▁못했지만	-11723
▁미국에서	-11724
▁미스터리	-11725
▁반전영화	-11726
▁버금가는	-11727
▁볼만했던	-11728
▁불우이웃	-11729
▁사람에게	-11730
▁사랑이란	-11731
▁스릴러는	-11732
▁심심해서	-11733
▁쓰레기들	-11734
▁아니겠지	-11735
▁안타까울	-11736
▁어른들이	-11737
▁어이없네	-11738
▁어정쩡한	-11739
▁억지웃음	-11740
▁영화라면	-11741
▁영화인거	-11742
▁옴니버스	-11743
▁우울할때	-11744
▁이야기들	-11745
▁인물들의	-11746
▁있어보이	-11747
▁작품성은	-11748
▁조잡하다	-11749
▁코미디로	-11750
▁한번보고	-11751
▁한순간도	-11752
▁해야하나	-11753
▁히어로물	-11754
감사합니다	-11755
것같습니다	-11756
재미도없고	-11757
▁감동이에요	-11758
▁강추입니다	-11759
▁되었습니다	-11760
▁드라마보다	-11761
▁떨어지지만	-11762
▁리메이크작	-11763
▁못봐주겠다	-11764
▁보면볼수록	-11765
▁볼만한영화	-11766
▁수작입니다	-11767
▁시나리오를	-11768
▁실망시키지	-11769
▁아름다움을	-11770
▁안타깝네요	-11771
▁인상적이다	-11772
쓰레기쓰레기	-11773
▁영화보는내내	-11774
▁감동적이었어요	-11775
+1	-11776
ma	-11777
ᄌᄒ	-11778
ᅳᅮ	-11779
▁귓	-11780
▁껄	-11781
▁꽁	-11782
▁닉	-11783
▁닐	-11784
▁밧	-11785
▁삭	-11786
▁쉰	-11787
▁쌓	-11788
▁왼	-11789
▁윈	-11790
▁잣	-11791
▁틴	-11792
▁펠	-11793
▁헨	-11794
▁홈	-11795
▁흰	-11796
거니	-11797
고기	-11798
국민	-11799
끝이	-11800
끼고	-11801
내돈	-11802
니콜	-11803
님과	-11804
다행	-11805
대도	-11806
대중	-11807
대충	-11808
도와	-11809
뒤로	-11810
드러	-11811
드레	-11812
드와	-11813
듣고	-11814
따윈	-11815
라를	-11816
라마	-11817
류가	-11818
리어	-11819
린거	-11820
많네	-11821
맞음	-11822
맞춘	-11823
맥스	-11824
면도	-11825
무니	-11826
무라	-11827
뭉클	-11828
뭐라	-11829
뭔지	-11830
발랄	-11831
밤에	-11832
보길	-11833
비판	-11834
산이	-11835
선의	-11836
스코	-11837
쓴다	-11838
아픈	-11839
어지	-11840
었죠	-11841
였군	-11842
오지	-11843
요한	-11844
운의	-11845
을꺼	-11846
을지	-11847
인해	-11848
잊혀	-11849
자랑	-11850
잔아	-11851
제의	-11852
주로	-11853
주에	-11854
중독	-11855
진부	-11856
짜는	-11857
차고	-11858
쳤던	-11859
총사	-11860
탈리	-11861
터의	-11862
테니	-11863
트랙	-11864
표절	-11865
해석	-11866
햇던	-11867
햇음	-11868
헤헤	-11869
희씨	-11870
히게	-11871
▁1%	-11872
▁44	-11873
▁97	-11874
▁on	-11875
▁re	-11876
▁가시	-11877
▁가식	-11878
▁각성	-11879
▁각인	-11880
▁간절	-11881
▁강철	-11882
▁건너	-11883
▁고향	-11884
▁광기	-11885
▁괴작	-11886
▁구나	-11887
▁그에	-11888
▁금성	-11889
▁기어	-11890
▁긴급	-11891
▁꿈에	-11892
▁끝냈	-11893
▁끝장	-11894
▁나간	-11895
▁나른	-11896
▁낚이	-11897
▁네가	-11898
▁눈감	-11899
▁눈과	-11900
▁눈은	-11901
▁눈치	-11902
▁다리	-11903
▁당최	-11904
▁도박	-11905
▁드릴	-11906
▁리브	-11907
▁말에	-11908
▁망쳤	-11909
▁맞게	-11910
▁맞춘	-11911
▁매년	-11912
▁먹은	-11913
▁몇개	-11914
▁목적	-11915
▁몰아	-11916
▁못된	-11917
▁못볼	-11918
▁무어	-11919
▁문채	-11920
▁뭔데	-11921
▁미개	-11922
▁미성	-11923
▁믿겨	-11924
▁박영	-11925
▁박한	-11926
▁버림	-11927
▁벅찬	-11928
▁베일	-11929
▁보나	-11930
▁보일	-11931
▁봉태	-11932
▁빠순	-11933
▁사전	-11934
▁살자	-11935
▁선전	-11936
▁성질	-11937
▁소문	-11938
▁수술	-11939
▁슴가	-11940
▁습작	-11941
▁시네	-11942
▁싫음	-11943
▁써도	-11944
▁써라	-11945
▁아시	-11946
▁애를	-11947
▁얄팍	-11948
▁얼른	-11949
▁에반	-11950
▁여우	-11951
▁완결	-11952
▁왜들	-11953
▁욕할	-11954
▁우마	-11955
▁윤아	-11956
▁으악	-11957
▁은행	-11958
▁이뿌	-11959
▁인데	-11960
▁입고	-11961
▁자위	-11962
▁잘된	-11963
▁잘만	-11964
▁재료	-11965
▁적합	-11966
▁정당	-11967
▁정리	-11968
▁제맛	-11969
▁종결	-11970
▁종합	-11971
▁죽기	-11972
▁지닌	-11973
▁진주	-11974
▁질투	-11975
▁창조	-11976
▁첨에	-11977
▁초월	-11978
▁치닫	-11979
▁큰일	-11980
▁탁월	-11981
▁터져	-11982
▁터질	-11983
▁트루	-11984
▁파멸	-11985
▁편이	-11986
▁하던	-11987
▁하얀	-11988
▁하필	-11989
▁함정	-11990
갔다가	-11991
거리고	-11992
것들이	-11993
것처럼	-11994
겠다고	-11995
기보다	-11996
남자의	-11997
년이지	-11998
당하는	-11999
데리고	-12000
됐지만	-12001
들었다	-12002
들이다	-12003
렸어요	-12004
마무리	-12005
모르는	-12006
무서움	-12007
배우도	-12008
사람도	-12009
사랑을	-12010
수없다	-12011
스러울	-12012
스럽네	-12013
스트너	-12014
시키고	-12015
엇지만	-12016
였다니	-12017
영화들	-12018
예쁘고	-12019
웠는데	-12020
으려는	-12021
이군요	-12022
이어서	-12023
이예요	-12024
정말로	-12025
진짜로	-12026
터지는	-12027
페이지	-12028
하겠네	-12029
하느라	-12030
하였다	-12031
할수록	-12032
핵노잼	-12033
OOOO	-12034
^^;;	-12035
ight	-12036
▁6.5	-12037
▁개소리	-12038
▁개쩐다	-12039
▁검색해	-12040
▁공효진	-12041
▁과도한	-12042
▁그런거	-12043
▁그리스	-12044
▁까메오	-12045
▁나쁘진	-12046
▁나오게	-12047
▁남아돌	-12048
▁남자를	-12049
▁남주가	-12050
▁노래를	-12051
▁누구도	-12052
▁느낌도	-12053
▁능력이	-12054
▁된다는	-12055
▁따라한	-12056
▁똑바로	-12057
▁만나고	-12058
▁말하지	-12059
▁멋졌다	-12060
▁뭔내용	-12061
▁방어율	-12062
▁보기는	-12063
▁봤어도	-12064
▁부끄럽	-12065
▁뻔뻔한	-12066
▁새롭고	-12067
▁샌들러	-12068
▁생각은	-12069
▁서세원	-12070
▁설정에	-12071
▁소녀의	-12072
▁수작임	-12073
▁스피드	-12074
▁슬픔을	-12075
▁심하네	-12076
▁아들의	-12077
▁아쉬워	-12078
▁아이도	-12079
▁안되지	-12080
▁앞에서	-12081
▁애잔한	-12082
▁야동을	-12083
▁어렵게	-12084
▁어울릴	-12085
▁어지간	-12086
▁어쩐지	-12087
▁엉성함	-12088
▁영화면	-12089
▁와닿는	-12090
▁와진짜	-12091
▁왔어요	-12092
▁욕나옴	-12093
▁월드컵	-12094
▁웨스턴	-12095
▁은은한	-12096
▁이것만	-12097
▁이러지	-12098
▁이민정	-12099
▁이범수	-12100
▁이해는	-12101
▁일상의	-12102
▁일이다	-12103
▁있으니	-12104
▁자기가	-12105
▁작품도	-12106
▁잘생긴	-12107
▁재평가	-12108
▁잼없어	-12109
▁잼있고	-12110
▁전세계	-12111
▁정재영	-12112
▁정확히	-12113
▁존나게	-12114
▁존트라	-12115
▁좋아라	-12116
▁지나서	-12117
▁지독한	-12118
▁지린다	-12119
▁지저분	-12120
▁지진희	-12121
▁짧지만	-12122
▁차가운	-12123
▁최고야	-12124
▁최악인	-12125
▁추악한	-12126
▁탕웨이	-12127
▁하고싶	-12128
▁한국식	-12129
▁한국형	-12130
▁현실감	-12131
▁후속편	-12132
▁흐름이	-12133
스럽지만	-12134
최악이다	-12135
편보다는	-12136
하기만한	-12137
▁2006	-12138
▁9~10	-12139
▁감동까지	-12140
▁감안해도	-12141
▁군대에서	-12142
▁그림체도	-12143
▁기다리고	-12144
▁기발하고	-12145
▁나뿐인가	-12146
▁남자들이	-12147
▁다좋은데	-12148
▁들어가는	-12149
▁떠올리게	-12150
▁말도안되	-12151
▁무언가를	-12152
▁무협영화	-12153
▁별하나도	-12154
▁보다보다	-12155
▁빠져든다	-12156
▁성지순례	-12157
▁손꼽히는	-12158
▁스타일은	-12159
▁싶었는데	-12160
▁싶은건지	-12161
▁아련하고	-12162
▁아무래도	-12163
▁안보는데	-12164
▁안하는데	-12165
▁어마어마	-12166
▁어울린다	-12167
▁어이상실	-12168
▁엽기적인	-12169
▁영화ᄏᄏ	-12170
▁영화로써	-12171
▁예술이다	-12172
▁이거보면	-12173
▁이럴수가	-12174
▁이쁘네요	-12175
▁인상깊은	-12176
▁있다는게	-12177
▁있었어요	-12178
▁작품인데	-12179
▁재미까지	-12180
▁재밌겠다	-12181
▁정말최고	-12182
▁주고싶은	-12183
▁줄거리에	-12184
▁지루했던	-12185
▁천녀유혼	-12186
▁철학적인	-12187
▁최고예요	-12188
▁추천한다	-12189
▁틀림없다	-12190
▁프로젝트	-12191
▁화가난다	-12192
▁확실하게	-12193
▁훌륭하고	-12194
보고싶어요	-12195
재밌었어요	-12196
하긴하지만	-12197
▁개인적으론	-12198
▁나왔습니다	-12199
▁나홀로집에	-12200
▁내용전개가	-12201
▁대단합니다	-12202
▁대박입니다	-12203
▁대한민국의	-12204
▁드라마네요	-12205
▁드라마중에	-12206
▁만들어내는	-12207
▁먹먹해지는	-12208
▁모르겠는데	-12209
▁비현실적인	-12210
▁스티븐시걸	-12211
▁싸이코패스	-12212
▁쓰레기라고	-12213
▁잊혀지지가	-12214
▁지루하지도	-12215
▁지루합니다	-12216
▁캐릭터들의	-12217
▁평론가들은	-12218
▁내인생최고의	-12219
▁애니메이션을	-12220
▁흥미진진하다	-12221
,.,.,.,.	-12222
!!!!!!!!!!!!!!	-12223
21	-12224
~?	-12225
▁ᄁ	-12226
▁덩	-12227
▁롯	-12228
▁밨	-12229
▁뷰	-12230
▁앜	-12231
▁였	-12232
▁젬	-12233
▁져	-12234
▁킴	-12235
▁텅	-12236
▁톡	-12237
▁훗	-12238
가나	-12239
감성	-12240
값이	-12241
겠나	-12242
곁에	-12243
공룡	-12244
까봐	-12245
껴서	-12246
나쁘	-12247
날의	-12248
남겨	-12249
네스	-12250
넬로	-12251
녀가	-12252
누군	-12253
대결	-12254
더러	-12255
돋네	-12256
동네	-12257
되냐	-12258
로이	-12259
르의	-12260
리로	-12261
리리	-12262
만원	-12263
매가	-12264
먼이	-12265
멋잇	-12266
몰라	-12267
못생	-12268
무가	-12269
바가	-12270
바뀌	-12271
백만	-12272
보라	-12273
부모	-12274
블랙	-12275
블리	-12276
빠이	-12277
뿐인	-12278
세용	-12279
셉션	-12280
소라	-12281
시시	-12282
씨와	-12283
씬만	-12284
아련	-12285
애를	-12286
에효	-12287
예능	-12288
예뻐	-12289
오로	-12290
오면	-12291
욕을	-12292
우우	-12293
우울	-12294
원래	-12295
이구	-12296
이소	-12297
인즈	-12298
전설	-12299
정아	-12300
졌어	-12301
조심	-12302
조치	-12303
좋네	-12304
죽고	-12305
준이	-12306
준호	-12307
지라	-12308
쨋든	-12309
차원	-12310
찮은	-12311
챙겨	-12312
축구	-12313
카시	-12314
코난	-12315
크는	-12316
탄탄	-12317
투자	-12318
튼의	-12319
틀러	-12320
해짐	-12321
현재	-12322
호화	-12323
훈훈	-12324
흑흑	-12325
^.^	-12326
ant	-12327
ast	-12328
ter	-12329
ust	-12330
▁do	-12331
▁가관	-12332
▁개미	-12333
▁개빡	-12334
▁개운	-12335
▁건축	-12336
▁것과	-12337
▁공식	-12338
▁괴로	-12339
▁구려	-12340
▁긍정	-12341
▁기원	-12342
▁김재	-12343
▁까는	-12344
▁낄낄	-12345
▁나갈	-12346
▁나지	-12347
▁날이	-12348
▁남음	-12349
▁낯선	-12350
▁내는	-12351
▁내리	-12352
▁내세	-12353
▁달고	-12354
▁당췌	-12355
▁대비	-12356
▁드릅	-12357
▁들은	-12358
▁디젤	-12359
▁마사	-12360
▁마술	-12361
▁말길	-12362
▁머니	-12363
▁멈출	-12364
▁메인	-12365
▁명량	-12366
▁무거	-12367
▁미워	-12368
▁믿음	-12369
▁발악	-12370
▁백만	-12371
▁법칙	-12372
▁베니	-12373
▁보아	-12374
▁보장	-12375
▁봐요	-12376
▁봐주	-12377
▁부여	-12378
▁부재	-12379
▁불사	-12380
▁비가	-12381
▁사귀	-12382
▁사례	-12383
▁삼가	-12384
▁삽입	-12385
▁속지	-12386
▁손오	-12387
▁솔찍	-12388
▁수호	-12389
▁숨이	-12390
▁스틸	-12391
▁신부	-12392
▁아자	-12393
▁안죽	-12394
▁안줄	-12395
▁알맹	-12396
▁압축	-12397
▁어필	-12398
▁오줌	-12399
▁옹호	-12400
▁왜저	-12401
▁우베	-12402
▁웅장	-12403
▁유우	-12404
▁유희	-12405
▁윤계	-12406
▁이뭐	-12407
▁이와	-12408
▁이주	-12409
▁인듯	-12410
▁인한	-12411
▁자라	-12412
▁자빠	-12413
▁잠만	-12414
▁잠안	-12415
▁장선	-12416
▁적어	-12417
▁전성	-12418
▁전통	-12419
▁제길	-12420
▁제주	-12421
▁줄줄	-12422
▁중세	-12423
▁지리	-12424
▁지원	-12425
▁질문	-12426
▁쩔고	-12427
▁채민	-12428
▁총질	-12429
▁추상	-12430
▁터지	-12431
▁터짐	-12432
▁토미	-12433
▁통찰	-12434
▁트라	-12435
▁한채	-12436
▁향수	-12437
▁힘듬	-12438
가는데	-12439
거같은	-12440
겟네요	-12441
급으로	-12442
꼭봐야	-12443
또보고	-12444
리는게	-12445
만큼의	-12446
만하고	-12447
말밖에	-12448
미니즘	-12449
번봐도	-12450
본건데	-12451
분보다	-12452
사랑의	-12453
상으로	-12454
쓰는데	-12455
쓰래기	-12456
아들이	-12457
아름다	-12458
아먹는	-12459
아줌마	-12460
앞에서	-12461
앞으로	-12462
어릴때	-12463
어설픈	-12464
없었던	-12465
었다면	-12466
었을듯	-12467
에서나	-12468
여년전	-12469
영화관	-12470
영환줄	-12471
울었다	-12472
을까요	-12473
읍니다	-12474
이하도	-12475
인들은	-12476
인트가	-12477
작품이	-12478
적이며	-12479
점인데	-12480
주의의	-12481
준영화	-12482
지금도	-12483
코드가	-12484
프랑스	-12485
하려다	-12486
했었다	-12487
화부터	-12488
▁가르침	-12489
▁갔다가	-12490
▁강혜정	-12491
▁갱스터	-12492
▁거리가	-12493
▁것일까	-12494
▁관객들	-12495
▁그래두	-12496
▁그래요	-12497
▁그림도	-12498
▁기대됨	-12499
▁김래원	-12500
▁끝나네	-12501
▁끝으로	-12502
▁나름의	-12503
▁나오길	-12504
▁낚였어	-12505
▁남긴다	-12506
▁내리는	-12507
▁높은거	-12508
▁눈물날	-12509
▁눈요기	-12510
▁다같이	-12511
▁대박나	-12512
▁대사들	-12513
▁대하여	-12514
▁딱봐도	-12515
▁떠나는	-12516
▁많았다	-12517
▁말한다	-12518
▁말할수	-12519
▁모티브	-12520
▁목숨을	-12521
▁몸매는	-12522
▁못봤다	-12523
▁무개념	-12524
▁뭐하자	-12525
▁미국이	-12526
▁믿을수	-12527
▁박신양	-12528
▁버리는	-12529
▁범인은	-12530
▁봉태규	-12531
▁봣어요	-12532
▁봤다고	-12533
▁봤으니	-12534
▁불멸의	-12535
▁불쌍함	-12536
▁빨리감	-12537
▁사다코	-12538
▁생뚱맞	-12539
▁소설의	-12540
▁쇼생크	-12541
▁신경쓰	-12542
▁신기할	-12543
▁신민아	-12544
▁심리를	-12545
▁쓸쓸한	-12546
▁안가네	-12547
▁안되서	-12548
▁안되요	-12549
▁알수가	-12550
▁애들용	-12551
▁애틋한	-12552
▁얘기가	-12553
▁어떨지	-12554
▁어려서	-12555
▁엄마와	-12556
▁없다면	-12557
▁없을듯	-12558
▁엉뚱한	-12559
▁여자와	-12560
▁역사의	-12561
▁연출로	-12562
▁였어요	-12563
▁왜그러	-12564
▁용가리	-12565
▁유머도	-12566
▁유오성	-12567
▁이거볼	-12568
▁이러니	-12569
▁이루는	-12570
▁이상형	-12571
▁일어난	-12572
▁잠이나	-12573
▁장예모	-12574
▁재미난	-12575
▁재미짐	-12576
▁전편을	-12577
▁점에서	-12578
▁정서에	-12579
▁정신을	-12580
▁제레미	-12581
▁좋던데	-12582
▁죽어서	-12583
▁지구를	-12584
▁진행이	-12585
▁추억에	-12586
▁캐서린	-12587
▁쿠엔틴	-12588
▁태어나	-12589
▁팬인데	-12590
▁평가할	-12591
▁하나경	-12592
▁한건지	-12593
▁한국은	-12594
▁호러물	-12595
게만드는	-12596
고싶은데	-12597
기만하고	-12598
드라마의	-12599
보고나서	-12600
사람들의	-12601
생각나서	-12602
이영화가	-12603
인거같다	-12604
잘봤어요	-12605
장면에서	-12606
점준것중	-12607
주고싶다	-12608
지않았다	-12609
....!	-12610
~~~^^	-12611
ᅲᅲᅲᅲᅲ	-12612
▁Best	-12613
▁ᅮᅮᅮᅮ	-12614
▁개연성은	-12615
▁괜찮아요	-12616
▁구로사와	-12617
▁그래픽도	-12618
▁그런영화	-12619
▁그럼에도	-12620
▁기분나쁜	-12621
▁나오는거	-12622
▁느와르의	-12623
▁늑대인간	-12624
▁다가온다	-12625
▁담담하게	-12626
▁당시에도	-12627
▁롱테이크	-12628
▁만들었니	-12629
▁맘에든다	-12630
▁무서워요	-12631
▁밀려오는	-12632
▁바보같은	-12633
▁봤던건데	-12634
▁분명하다	-12635
▁불러일으	-12636
▁브래드피	-12637
▁비현실적	-12638
▁사람들도	-12639
▁산만하다	-12640
▁생각했다	-12641
▁성냥팔이	-12642
▁스펙타클	-12643
▁시간아까	-12644
▁시리즈로	-12645
▁시리즈물	-12646
▁시시하다	-12647
▁신비로운	-12648
▁아까운데	-12649
▁아주아주	-12650
▁안나오나	-12651
▁안되네요	-12652
▁안무섭고	-12653
▁알면서도	-12654
▁어디에도	-12655
▁어렸을땐	-12656
▁억지설정	-12657
▁에이리언	-12658
▁역사왜곡	-12659
▁연기들도	-12660
▁영화보면	-12661
▁영화처럼	-12662
▁영화평점	-12663
▁예고편에	-12664
▁오래오래	-12665
▁웃기려고	-12666
▁유치원생	-12667
▁이거밖에	-12668
▁재밌는거	-12669
▁전설이다	-12670
▁조기종영	-12671
▁주옥같은	-12672
▁중구난방	-12673
▁즐거웠다	-12674
▁찍었을까	-12675
▁촌스럽고	-12676
▁최악이네	-12677
▁코미디를	-12678
▁코스프레	-12679
▁클라이막	-12680
▁필요없고	-12681
▁하기에는	-12682
▁하는건지	-12683
▁하루종일	-12684
▁한마디만	-12685
▁할말없다	-12686
▁해주네요	-12687
▁현실성이	-12688
▁후회된다	-12689
▁흡입력이	-12690
▁흥미롭다	-12691
감동적이고	-12692
감동적이다	-12693
것만으로도	-12694
재밌는영화	-12695
재밌습니다	-12696
재밌었는데	-12697
▁1,2,3	-12698
▁느낄수있는	-12699
▁사실적으로	-12700
▁소름끼친다	-12701
▁시사회에서	-12702
▁아니었으면	-12703
▁안드로메다	-12704
▁여자친구랑	-12705
▁영화관가서	-12706
▁우리나라에	-12707
▁이딴영화가	-12708
▁재미없었던	-12709
▁제시카알바	-12710
▁좋은영화다	-12711
▁초등학생때	-12712
▁최악이었다	-12713
▁충격적이다	-12714
인줄알았는데	-12715
!!!!!!!!!!	-12716
????????????????	-12717
78	-12718
ee	-12719
ge	-12720
~.	-12721
▁]	-12722
▁ᄎ	-12723
▁ᅩ	-12724
▁굵	-12725
▁규	-12726
▁꾀	-12727
▁꾹	-12728
▁낡	-12729
▁료	-12730
▁뤽	-12731
▁묶	-12732
▁밸	-12733
▁얕	-12734
▁쩜	-12735
▁쫒	-12736
▁챔	-12737
▁퀄	-12738
▁텔	-12739
게로	-12740
고어	-12741
곡도	-12742
과정	-12743
관리	-12744
구로	-12745
구여	-12746
권을	-12747
그린	-12748
기면	-12749
꼈다	-12750
꼬마	-12751
나머	-12752
나입	-12753
나잇	-12754
도에	-12755
동의	-12756
되길	-12757
두개	-12758
등등	-12759
등록	-12760
디아	-12761
란이	-12762
래야	-12763
로선	-12764
론은	-12765
리뷰	-12766
리얼	-12767
릴뻔	-12768
마트	-12769
매의	-12770
먼의	-12771
멋짐	-12772
모도	-12773
모험	-12774
물도	-12775
반도	-12776
방에	-12777
부턴	-12778
불패	-12779
사기	-12780
사냥	-12781
사로	-12782
상관	-12783
생의	-12784
세한	-12785
소서	-12786
스토	-12787
슴다	-12788
습니	-12789
심은	-12790
씁쓸	-12791
씨엔	-12792
씬도	-12793
아자	-12794
알게	-12795
앤딩	-12796
언이	-12797
에여	-12798
역에	-12799
역의	-12800
오바	-12801
오버	-12802
윤아	-12803
이이	-12804
인표	-12805
자만	-12806
장님	-12807
잭맨	-12808
전부	-12809
점의	-12810
제왕	-12811
존스	-12812
좋앗	-12813
중근	-12814
즈를	-12815
지로	-12816
천국	-12817
칙한	-12818
칠때	-12819
캐리	-12820
쿼터	-12821
타닉	-12822
탐정	-12823
테이	-12824
티나	-12825
티네	-12826
틱한	-12827
파괴	-12828
파리	-12829
평범	-12830
포트	-12831
프가	-12832
할말	-12833
했냐	-12834
행을	-12835
화는	-12836
?;;	-12837
▁-_	-12838
▁93	-12839
▁It	-12840
▁XX	-12841
▁go	-12842
▁tr	-12843
▁가게	-12844
▁강예	-12845
▁강호	-12846
▁개도	-12847
▁개쩌	-12848
▁건데	-12849
▁건드	-12850
▁계획	-12851
▁고수	-12852
▁골든	-12853
▁공산	-12854
▁관광	-12855
▁관능	-12856
▁교차	-12857
▁구림	-12858
▁국제	-12859
▁김규	-12860
▁끌려	-12861
▁낚일	-12862
▁남이	-12863
▁남지	-12864
▁넘버	-12865
▁놀이	-12866
▁놈이	-12867
▁높음	-12868
▁놓칠	-12869
▁느꼇	-12870
▁느려	-12871
▁도덕	-12872
▁돌이	-12873
▁동참	-12874
▁되길	-12875
▁되도	-12876
▁되새	-12877
▁두개	-12878
▁두뇌	-12879
▁디게	-12880
▁디지	-12881
▁똥꼬	-12882
▁뚜렷	-12883
▁루이	-12884
▁망해	-12885
▁매튜	-12886
▁맥어	-12887
▁명절	-12888
▁몰래	-12889
▁뭐든	-12890
▁뭘본	-12891
▁미리	-12892
▁미사	-12893
▁밝고	-12894
▁밝은	-12895
▁베끼	-12896
▁볼땐	-12897
▁부드	-12898
▁분신	-12899
▁불교	-12900
▁비약	-12901
▁뿐만	-12902
▁서민	-12903
▁서우	-12904
▁서인	-12905
▁손을	-12906
▁송중	-12907
▁쇼킹	-12908
▁스파	-12909
▁승화	-12910
▁악의	-12911
▁악플	-12912
▁안경	-12913
▁안달	-12914
▁약을	-12915
▁어깨	-12916
▁에스	-12917
▁에어	-12918
▁여왕	-12919
▁여인	-12920
▁여지	-12921
▁예의	-12922
▁오르	-12923
▁완존	-12924
▁왜캐	-12925
▁외로	-12926
▁요란	-12927
▁우웩	-12928
▁울린	-12929
▁으으	-12930
▁이랬	-12931
▁이를	-12932
▁이세	-12933
▁입장	-12934
▁자전	-12935
▁자존	-12936
▁작렬	-12937
▁작작	-12938
▁작정	-12939
▁잡은	-12940
▁잡을	-12941
▁잤음	-12942
▁잭슨	-12943
▁잼써	-12944
▁저리	-12945
▁저지	-12946
▁조커	-12947
▁죽일	-12948
▁중고	-12949
▁지연	-12950
▁진구	-12951
▁진출	-12952
▁집단	-12953
▁참혹	-12954
▁찾은	-12955
▁초라	-12956
▁토이	-12957
▁파헤	-12958
▁플래	-12959
▁픽사	-12960
▁한쪽	-12961
▁할일	-12962
▁합쳐	-12963
▁했을	-12964
▁혹성	-12965
▁홀로	-12966
거라고	-12967
그것도	-12968
그렇고	-12969
기분이	-12970
나는데	-12971
나보네	-12972
년이나	-12973
는지도	-12974
대사가	-12975
된다는	-12976
됬는데	-12977
들과는	-12978
들인가	-12979
레쉬맨	-12980
마이갓	-12981
만드냐	-12982
메이징	-12983
명이서	-12984
버리네	-12985
베스트	-12986
보다더	-12987
보라고	-12988
보지말	-12989
본사람	-12990
부터는	-12991
성으로	-12992
수준의	-12993
스라엘	-12994
싸이코	-12995
아이돌	-12996
어머니	-12997
어이가	-12998
연기와	-12999
였다는	-13000
영상미	-13001
위원회	-13002
의영화	-13003
이란걸	-13004
저예산	-13005
지못한	-13006
짱짱맨	-13007
척하는	-13008
티비로	-13009
파서블	-13010
하라는	-13011
하지는	-13012
하진않	-13013
할머니	-13014
햇어요	-13015
...;	-13016
▁0.1	-13017
▁120	-13018
▁^-^	-13019
▁^^;	-13020
▁bor	-13021
▁ᅮᅮᅮ	-13022
▁개봉할	-13023
▁거시기	-13024
▁겁나게	-13025
▁계기가	-13026
▁고맙다	-13027
▁고현정	-13028
▁굿바이	-13029
▁급전개	-13030
▁꼽히는	-13031
▁꽝이다	-13032
▁끔찍한	-13033
▁나이를	-13034
▁남기고	-13035
▁남자와	-13036
▁넘어가	-13037
▁니들은	-13038
▁다니는	-13039
▁다섯개	-13040
▁다큐로	-13041
▁당연한	-13042
▁대단함	-13043
▁돋는다	-13044
▁된장녀	-13045
▁두려움	-13046
▁때리고	-13047
▁마누라	-13048
▁만화로	-13049
▁많았던	-13050
▁말기를	-13051
▁말장난	-13052
▁멋있게	-13053
▁명작중	-13054
▁못되는	-13055
▁못하나	-13056
▁무난한	-13057
▁무책임	-13058
▁무한한	-13059
▁뭐이런	-13060
▁박유천	-13061
▁박한별	-13062
▁발견한	-13063
▁발전이	-13064
▁봤더만	-13065
▁봤어야	-13066
▁부분을	-13067
▁부실한	-13068
▁부족해	-13069
▁분노의	-13070
▁불필요	-13071
▁사춘기	-13072
▁사회를	-13073
▁새롭다	-13074
▁선택한	-13075
▁설명은	-13076
▁성룡은	-13077
▁소리지	-13078
▁소설이	-13079
▁수준도	-13080
▁스크림	-13081
▁슬펐던	-13082
▁슬픔이	-13083
▁쌍벽을	-13084
▁아시는	-13085
▁안가고	-13086
▁않는데	-13087
▁않은가	-13088
▁알았지	-13089
▁약빨고	-13090
▁어렵고	-13091
▁여진구	-13092
▁역겹고	-13093
▁역할이	-13094
▁연기파	-13095
▁우리도	-13096
▁우리를	-13097
▁웨슬리	-13098
▁위로가	-13099
▁의리로	-13100
▁이것을	-13101
▁이러면	-13102
▁이민기	-13103
▁이성재	-13104
▁이자벨	-13105
▁이정현	-13106
▁이준기	-13107
▁이후의	-13108
▁있을때	-13109
▁자다가	-13110
▁장난이	-13111
▁장면과	-13112
▁재밋엇	-13113
▁좋은거	-13114
▁주다니	-13115
▁주지훈	-13116
▁죽어도	-13117
▁쩔어요	-13118
▁처음봄	-13119
▁철학적	-13120
▁초딩용	-13121
▁최지우	-13122
▁추천함	-13123
▁친구를	-13124
▁카타르	-13125
▁콘서트	-13126
▁통해서	-13127
▁팔아먹	-13128
▁편안한	-13129
▁평점만	-13130
▁폴리스	-13131
▁하나님	-13132
▁한가지	-13133
▁한다면	-13134
▁한정된	-13135
▁합시다	-13136
▁해보고	-13137
▁핸드폰	-13138
▁행복해	-13139
▁확실한	-13140
▁흔적이	-13141
거같네요	-13142
명작이다	-13143
배우들도	-13144
봐야겠다	-13145
봤는데도	-13146
아니지만	-13147
에서부터	-13148
이라는걸	-13149
이라지만	-13150
이영화를	-13151
인줄알고	-13152
재밋는데	-13153
채널에서	-13154
처음부터	-13155
한국영화	-13156
할수밖에	-13157
...10	-13158
▁감독님이	-13159
▁골때리는	-13160
▁공감되는	-13161
▁괜찮았고	-13162
▁극장개봉	-13163
▁기분좋아	-13164
▁나온다고	-13165
▁나온다는	-13166
▁남자들은	-13167
▁내취향은	-13168
▁눈물나게	-13169
▁다가오는	-13170
▁단순하고	-13171
▁답이없다	-13172
▁떠오른다	-13173
▁마음속에	-13174
▁만들지마	-13175
▁말도안돼	-13176
▁매력있다	-13177
▁먹먹하고	-13178
▁무서운거	-13179
▁배우들만	-13180
▁보여줬다	-13181
▁볼거리는	-13182
▁볼만하네	-13183
▁부족하고	-13184
▁분위기만	-13185
▁비디오용	-13186
▁사랑하게	-13187
▁상상력을	-13188
▁생각하며	-13189
▁생각해볼	-13190
▁생생하다	-13191
▁수준낮은	-13192
▁스릴러도	-13193
▁스릴러의	-13194
▁스케일도	-13195
▁시작된다	-13196
▁실화라고	-13197
▁아니었음	-13198
▁아메리칸	-13199
▁아저씨가	-13200
▁안나오네	-13201
▁안주는데	-13202
▁액션으로	-13203
▁어렷을때	-13204
▁어이없어	-13205
▁연출력과	-13206
▁오토바이	-13207
▁올리비아	-13208
▁완성도는	-13209
▁원작만화	-13210
▁유머러스	-13211
▁음악영화	-13212
▁이때부터	-13213
▁이스라엘	-13214
▁이유없이	-13215
▁잔인하게	-13216
▁저버리지	-13217
▁저질영화	-13218
▁주인공을	-13219
▁줄거리도	-13220
▁쥬라기공	-13221
▁지루함과	-13222
▁추천해요	-13223
▁캐스팅에	-13224
▁코미디와	-13225
▁팬이지만	-13226
▁행복하다	-13227
▁허무하고	-13228
▁흔해빠진	-13229
뻔한스토리	-13230
재미있네요	-13231
ᅲᅲᅲᅲᅲᅲ	-13232
▁가면갈수록	-13233
▁감정이입이	-13234
▁고등학교때	-13235
▁느껴지네요	-13236
▁매력적이고	-13237
▁생각하는데	-13238
▁스크린으로	-13239
▁시간아까운	-13240
▁어이없어서	-13241
▁영화보다는	-13242
▁영화인가요	-13243
▁이런드라마	-13244
▁인상깊었다	-13245
▁잔인하기만	-13246
▁잔인하지도	-13247
▁잼있었어요	-13248
▁존트라볼타	-13249
▁좋아했는데	-13250
▁지금까지도	-13251
▁지루하다고	-13252
▁처음입니다	-13253
▁포스터보고	-13254
▁한국영화에	-13255
▁해피엔딩이	-13256
▁현실적으로	-13257
▁훈훈해지는	-13258
재미있었어요	-13259
~~~~~~~	-13260
▁~~~~~~	-13261
▁다시보고싶다	-13262
▁무슨생각으로	-13263
▁재미없었어요	-13264
▁.......	-13265
▁~~~~~~~	-13266
▁좋은영화입니다	-13267
▁시간가는줄모르고	-13268
!!!!!!!!!!!!	-13269
▁ᄏᄏᄏᄏᄏᄏᄏᄏᄏᄏᄏᄏᄏᄏᄏ	-13270
!@	-13271
-_	-13272
VE	-13273
ab	-13274
~♡	-13275
ᄂᄋ	-13276
▁딜	-13277
▁랩	-13278
▁뻘	-13279
▁샬	-13280
▁씻	-13281
▁엣	-13282
▁쟁	-13283
▁쟈	-13284
▁쭈	-13285
▁쯔	-13286
▁펄	-13287
▁횡	-13288
▁힛	-13289
개뿔	-13290
거가	-13291
걸린	-13292
겟지	-13293
극치	-13294
글고	-13295
긴데	-13296
나나	-13297
나여	-13298
남이	-13299
내면	-13300
네용	-13301
녀다	-13302
년들	-13303
노의	-13304
누님	-13305
느낀	-13306
니는	-13307
다섯	-13308
단순	-13309
당신	-13310
대서	-13311
대신	-13312
대전	-13313
댄스	-13314
됬다	-13315
둘이	-13316
드니	-13317
들인	-13318
디의	-13319
란게	-13320
런스	-13321
레드	-13322
력과	-13323
력은	-13324
리냐	-13325
마에	-13326
막극	-13327
많아	-13328
모토	-13329
바탕	-13330
방법	-13331
벌써	-13332
별한	-13333
봣던	-13334
사위	-13335
살짝	-13336
상상	-13337
서사	-13338
석천	-13339
설레	-13340
송이	-13341
수함	-13342
스넌	-13343
심심	-13344
아침	-13345
안다	-13346
양을	-13347
어휴	-13348
외국	-13349
위의	-13350
유키	-13351
의사	-13352
이번	-13353
일한	-13354
자면	-13355
장군	-13356
전체	-13357
조절	-13358
종교	-13359
줬음	-13360
지션	-13361
지식	-13362
질뻔	-13363
쩔고	-13364
차드	-13365
책을	-13366
천만	-13367
청춘	-13368
쳐라	-13369
칠이	-13370
커스	-13371
태웅	-13372
토벤	-13373
트에	-13374
파일	-13375
판에	-13376
항상	-13377
확인	-13378
힐링	-13379
..~	-13380
OOD	-13381
^0^	-13382
her	-13383
▁88	-13384
▁96	-13385
▁sm	-13386
▁up	-13387
▁강수	-13388
▁계단	-13389
▁고려	-13390
▁교도	-13391
▁구린	-13392
▁군인	-13393
▁글래	-13394
▁금방	-13395
▁김두	-13396
▁꼽는	-13397
▁끌지	-13398
▁낮을	-13399
▁놓친	-13400
▁니미	-13401
▁대리	-13402
▁레드	-13403
▁류의	-13404
▁마시	-13405
▁맞은	-13406
▁멸망	-13407
▁명예	-13408
▁명확	-13409
▁못난	-13410
▁무기	-13411
▁무뇌	-13412
▁뭐죠	-13413
▁뭘말	-13414
▁미련	-13415
▁믿는	-13416
▁밍밍	-13417
▁박용	-13418
▁반미	-13419
▁발휘	-13420
▁배두	-13421
▁배운	-13422
▁버젼	-13423
▁벗고	-13424
▁베낀	-13425
▁별을	-13426
▁본적	-13427
▁본후	-13428
▁불꽃	-13429
▁불만	-13430
▁비명	-13431
▁뻔해	-13432
▁뻔히	-13433
▁사망	-13434
▁산뜻	-13435
▁산타	-13436
▁상쾌	-13437
▁새드	-13438
▁생김	-13439
▁선교	-13440
▁세기	-13441
▁수업	-13442
▁슬플	-13443
▁써야	-13444
▁씨네	-13445
▁씬이	-13446
▁아르	-13447
▁아리	-13448
▁아웃	-13449
▁아일	-13450
▁앤딩	-13451
▁양반	-13452
▁양키	-13453
▁에혀	-13454
▁여튼	-13455
▁예나	-13456
▁오만	-13457
▁요세	-13458
▁울었	-13459
▁웃다	-13460
▁유년	-13461
▁유사	-13462
▁유작	-13463
▁유코	-13464
▁윤진	-13465
▁의존	-13466
▁이길	-13467
▁인공	-13468
▁인연	-13469
▁잉여	-13470
▁자는	-13471
▁잼게	-13472
▁잼께	-13473
▁전용	-13474
▁전파	-13475
▁제격	-13476
▁졸린	-13477
▁좋구	-13478
▁좋으	-13479
▁좌절	-13480
▁죽지	-13481
▁지능	-13482
▁지어	-13483
▁차분	-13484
▁참다	-13485
▁창작	-13486
▁찾게	-13487
▁책도	-13488
▁타는	-13489
▁타짜	-13490
▁투박	-13491
▁팬티	-13492
▁필모	-13493
▁한때	-13494
▁형이	-13495
▁호화	-13496
▁혹평	-13497
▁화해	-13498
▁회상	-13499
▁획기	-13500
▁후유	-13501
▁휴가	-13502
▁흘릴	-13503
각기동	-13504
간다는	-13505
감동적	-13506
감으로	-13507
거린다	-13508
것들은	-13509
것이지	-13510
겟어요	-13511
나왔다	-13512
남네요	-13513
네ᅳᅳ	-13514
노래도	-13515
닼ᄏᄏ	-13516
더구만	-13517
되어서	-13518
들이여	-13519
머리가	-13520
멋있다	-13521
몰라도	-13522
반전도	-13523
보는거	-13524
본다면	-13525
볼만함	-13526
부분만	-13527
세계가	-13528
순없다	-13529
시간도	-13530
시대를	-13531
아프다	-13532
애들도	-13533
액션의	-13534
없으면	-13535
에비해	-13536
여자의	-13537
역으로	-13538
연기자	-13539
영화와	-13540
오그라	-13541
으므로	-13542
음ᄏᄏ	-13543
이었고	-13544
이었어	-13545
일라잇	-13546
잼있다	-13547
점수를	-13548
정신이	-13549
제목이	-13550
주려고	-13551
주의에	-13552
줄알고	-13553
칩니다	-13554
크리스	-13555
테스크	-13556
포르노	-13557
하겠지	-13558
할려고	-13559
합니당	-13560
해놓고	-13561
햇지만	-13562
했어도	-13563
했었던	-13564
...2	-13565
▁-.-	-13566
▁196	-13567
▁^^*	-13568
▁ᄆᄌᄒ	-13569
▁각본과	-13570
▁감정의	-13571
▁것들은	-13572
▁게리올	-13573
▁경쾌한	-13574
▁고마워	-13575
▁고아라	-13576
▁공포의	-13577
▁과정을	-13578
▁괜찮을	-13579
▁그녀를	-13580
▁그런건	-13581
▁그리움	-13582
▁극적인	-13583
▁극치를	-13584
▁급하게	-13585
▁기묘한	-13586
▁기회가	-13587
▁김수로	-13588
▁꺼버린	-13589
▁끌리는	-13590
▁끝나면	-13591
▁나가고	-13592
▁나라의	-13593
▁남아요	-13594
▁납니다	-13595
▁노래와	-13596
▁노력한	-13597
▁다있냐	-13598
▁당하는	-13599
▁당할수	-13600
▁더빙을	-13601
▁돌아간	-13602
▁동물의	-13603
▁드릅게	-13604
▁따라가	-13605
▁따스한	-13606
▁만들까	-13607
▁만들자	-13608
▁매력도	-13609
▁머리에	-13610
▁멜깁슨	-13611
▁몰랐던	-13612
▁몸매가	-13613
▁무식한	-13614
▁뭔가를	-13615
▁미치지	-13616
▁민주화	-13617
▁방식이	-13618
▁별론데	-13619
▁봤으나	-13620
▁상큼한	-13621
▁새롭게	-13622
▁성장기	-13623
▁세계관	-13624
▁세번째	-13625
▁솔찍히	-13626
▁순수함	-13627
▁스나입	-13628
▁스릴과	-13629
▁식으로	-13630
▁신기한	-13631
▁신동엽	-13632
▁실망을	-13633
▁심금을	-13634
▁심장을	-13635
▁싶다는	-13636
▁싶을때	-13637
▁아닌거	-13638
▁아들과	-13639
▁아팠다	-13640
▁안나올	-13641
▁안나와	-13642
▁안보길	-13643
▁않겠다	-13644
▁않았고	-13645
▁애매한	-13646
▁어벤져	-13647
▁어찌나	-13648
▁엄마는	-13649
▁엉덩이	-13650
▁연결이	-13651
▁영화ᄏ	-13652
▁영화군	-13653
▁예상치	-13654
▁예술가	-13655
▁오랫만	-13656
▁오로라	-13657
▁와이어	-13658
▁왜그랬	-13659
▁욕나오	-13660
▁욕하는	-13661
▁용기를	-13662
▁우정이	-13663
▁울린다	-13664
▁울림이	-13665
▁웃을수	-13666
▁웃지요	-13667
▁위험한	-13668
▁유아인	-13669
▁의문이	-13670
▁이감독	-13671
▁이게머	-13672
▁이라고	-13673
▁이런데	-13674
▁이름에	-13675
▁이번에	-13676
▁인간을	-13677
▁인기가	-13678
▁자막이	-13679
▁잔잔히	-13680
▁잘해서	-13681
▁잼없는	-13682
▁잼있네	-13683
▁전쟁은	-13684
▁절묘한	-13685
▁제목도	-13686
▁제작된	-13687
▁졸작을	-13688
▁좋으면	-13689
▁주는데	-13690
▁주말의	-13691
▁중년의	-13692
▁질질끌	-13693
▁찾았다	-13694
▁초호화	-13695
▁최민식	-13696
▁최수종	-13697
▁최악은	-13698
▁출연작	-13699
▁춤추는	-13700
▁크레이	-13701
▁터무니	-13702
▁테스트	-13703
▁피어스	-13704
▁하더라	-13705
▁향수를	-13706
▁허니잼	-13707
▁허무함	-13708
▁현대판	-13709
▁현재의	-13710
▁흐른다	-13711
▁흐름을	-13712
▁흥미가	-13713
▁힘들듯	-13714
★★★★	-13715
기보다는	-13716
생각보다	-13717
시리즈를	-13718
앞으로도	-13719
었던영화	-13720
영화인지	-13721
이라고는	-13722
이정도면	-13723
좋겠어요	-13724
지금까지	-13725
지루해서	-13726
지루했다	-13727
하는건지	-13728
한영화다	-13729
▁가슴찡한	-13730
▁가족끼리	-13731
▁감독이나	-13732
▁감성적인	-13733
▁거슬린다	-13734
▁교훈적인	-13735
▁그럴듯한	-13736
▁기다리는	-13737
▁기대하게	-13738
▁깔끔하게	-13739
▁나오지만	-13740
▁나중에는	-13741
▁내용이나	-13742
▁누구에게	-13743
▁눈물나는	-13744
▁느끼는게	-13745
▁돈아까운	-13746
▁돌아가고	-13747
▁되었는데	-13748
▁또하나의	-13749
▁러브라인	-13750
▁만든거냐	-13751
▁만든거지	-13752
▁만점짜리	-13753
▁말해준다	-13754
▁메시지는	-13755
▁명작이라	-13756
▁몇년전에	-13757
▁무시무시	-13758
▁무의미한	-13759
▁무척이나	-13760
▁보면서도	-13761
▁보석같은	-13762
▁보았네요	-13763
▁보았지만	-13764
▁부족했다	-13765
▁브라이언	-13766
▁사랑이다	-13767
▁살아있다	-13768
▁생각하지	-13769
▁섬세하게	-13770
▁슬펐어요	-13771
▁시간여행	-13772
▁시시하고	-13773
▁싶어지는	-13774
▁아깝다고	-13775
▁아버지와	-13776
▁안되는데	-13777
▁안쓰는데	-13778
▁않았을까	-13779
▁알았지만	-13780
▁애들영화	-13781
▁야한영화	-13782
▁어디선가	-13783
▁어땠을까	-13784
▁영상미에	-13785
▁예쁘네요	-13786
▁오다기리	-13787
▁왜만드는	-13788
▁외국영화	-13789
▁욕나오네	-13790
▁우울하고	-13791
▁원작소설	-13792
▁위대하다	-13793
▁이게무슨	-13794
▁이야기와	-13795
▁이제그만	-13796
▁인간들은	-13797
▁인도영화	-13798
▁인물들이	-13799
▁인터스텔	-13800
▁일깨워준	-13801
▁일어나는	-13802
▁입장에서	-13803
▁있었을까	-13804
▁있을까요	-13805
▁자유로운	-13806
▁전설적인	-13807
▁존재한다	-13808
▁좋아하던	-13809
▁지루하긴	-13810
▁집중하게	-13811
▁출연하는	-13812
▁쿵푸팬더	-13813
▁크리스마	-13814
▁평점너무	-13815
▁평점테러	-13816
▁혹성탈출	-13817
보고있는데	-13818
본영화중에	-13819
하긴했지만	-13820
하더라구요	-13821
▁기대했건만	-13822
▁대단하네요	-13823
▁만들었는데	-13824
▁만들었다면	-13825
▁몇번을봐도	-13826
▁아담샌들러	-13827
▁아름다워요	-13828
▁아이디어가	-13829
▁억지스러움	-13830
▁에니메이션	-13831
▁여주인공은	-13832
▁영화이지만	-13833
▁일본영화가	-13834
▁잘어울리는	-13835
▁재미잇어요	-13836
▁평점왜이래	-13837
▁하나만으로도	-13838
▁흥미진진하고	-13839
~~~~~~~~~~~~~~~~	-13840
.<	-13841
.♥	-13842
ap	-13843
gh	-13844
hh	-13845
ir	-13846
ol	-13847
um	-13848
ᄏᄒ	-13849
▁Z	-13850
▁z	-13851
▁★	-13852
▁겸	-13853
▁닦	-13854
▁돕	-13855
▁뷁	-13856
▁삘	-13857
▁샹	-13858
▁셜	-13859
▁썻	-13860
▁쑤	-13861
▁쫙	-13862
▁킥	-13863
▁틸	-13864
▁펑	-13865
가득	-13866
것네	-13867
겠니	-13868
고은	-13869
관념	-13870
구마	-13871
구멍	-13872
그려	-13873
기지	-13874
깊이	-13875
낮다	-13876
내기	-13877
내다	-13878
넘어	-13879
넣은	-13880
노키	-13881
놨다	-13882
느낄	-13883
느님	-13884
니발	-13885
닥터	-13886
당할	-13887
대장	-13888
덕환	-13889
동석	-13890
든데	-13891
디션	-13892
디스	-13893
따로	-13894
러울	-13895
레알	-13896
려원	-13897
로윈	-13898
루는	-13899
루치	-13900
르지	-13901
리라	-13902
리슨	-13903
린지	-13904
만옥	-13905
말에	-13906
문학	-13907
미지	-13908
밀라	-13909
박이	-13910
박자	-13911
밖의	-13912
범이	-13913
복이	-13914
봤나	-13915
분간	-13916
분장	-13917
비를	-13918
비한	-13919
빙빙	-13920
빵빵	-13921
뿐만	-13922
선물	-13923
성만	-13924
성장	-13925
쉬튼	-13926
슈퍼	-13927
시윤	-13928
시장	-13929
신히	-13930
심리	-13931
십쇼	-13932
쓰렉	-13933
안볼	-13934
야의	-13935
었니	-13936
였죠	-13937
예쁜	-13938
온나	-13939
올림	-13940
와우	-13941
우월	-13942
울수	-13943
읍다	-13944
의한	-13945
일도	-13946
일체	-13947
입고	-13948
자에	-13949
잘안	-13950
잡이	-13951
정명	-13952
제라	-13953
제를	-13954
조폭	-13955
졸려	-13956
주냐	-13957
증을	-13958
진모	-13959
진한	-13960
질을	-13961
짓게	-13962
짜로	-13963
체의	-13964
초등	-13965
츠의	-13966
쿠삭	-13967
크릿	-13968
태의	-13969
터클	-13970
토가	-13971
트와	-13972
틀어	-13973
폭발	-13974
풀이	-13975
프만	-13976
한숨	-13977
합이	-13978
회를	-13979
+_+	-13980
,.,	-13981
ery	-13982
ᄒᄃᄃ	-13983
▁-1	-13984
▁3,	-13985
▁am	-13986
▁av	-13987
▁ch	-13988
▁갈릴	-13989
▁거울	-13990
▁거친	-13991
▁건담	-13992
▁걷는	-13993
▁고래	-13994
▁곳이	-13995
▁과감	-13996
▁과한	-13997
▁광해	-13998
▁구매	-13999
▁구석	-14000
▁글을	-14001
▁기도	-14002
▁김병	-14003
▁김보	-14004
▁김상	-14005
▁꾸준	-14006
▁나누	-14007
▁낯설	-14008
▁너네	-14009
▁놀랄	-14010
▁놀람	-14011
▁뉴스	-14012
▁늙어	-14013
▁다다	-14014
▁단점	-14015
▁닮은	-14016
▁대구	-14017
▁데려	-14018
▁독재	-14019
▁돋는	-14020
▁됐지	-14021
▁되요	-14022
▁드립	-14023
▁들을	-14024
▁뗄수	-14025
▁롯데	-14026
▁마을	-14027
▁많지	-14028
▁맛을	-14029
▁망상	-14030
▁매길	-14031
▁매회	-14032
▁머여	-14033
▁먹을	-14034
▁몰려	-14035
▁무심	-14036
▁물결	-14037
▁뭣도	-14038
▁미달	-14039
▁바랄	-14040
▁밖엔	-14041
▁반가	-14042
▁반짝	-14043
▁방식	-14044
▁번지	-14045
▁보냐	-14046
▁보삼	-14047
▁복제	-14048
▁본드	-14049
▁본좌	-14050
▁볼일	-14051
▁부를	-14052
▁분은	-14053
▁붙여	-14054
▁비난	-14055
▁비장	-14056
▁빌린	-14057
▁빌어	-14058
▁빨려	-14059
▁사형	-14060
▁샤말	-14061
▁서동	-14062
▁서른	-14063
▁선율	-14064
▁섭외	-14065
▁성기	-14066
▁세븐	-14067
▁수목	-14068
▁수정	-14069
▁순위	-14070
▁스콜	-14071
▁스텔	-14072
▁시달	-14073
▁신뢰	-14074
▁실소	-14075
▁씬은	-14076
▁아트	-14077
▁안듬	-14078
▁언어	-14079
▁여잔	-14080
▁역활	-14081
▁연걸	-14082
▁연계	-14083
▁열린	-14084
▁옥의	-14085
▁왕따	-14086
▁요한	-14087
▁우에	-14088
▁울뻔	-14089
▁윌스	-14090
▁일드	-14091
▁작살	-14092
▁잘난	-14093
▁잘라	-14094
▁잘짜	-14095
▁장황	-14096
▁재일	-14097
▁잼남	-14098
▁잼이	-14099
▁적응	-14100
▁절절	-14101
▁정경	-14102
▁정선	-14103
▁존예	-14104
▁좌빨	-14105
▁좌좀	-14106
▁죄를	-14107
▁주네	-14108
▁주려	-14109
▁중딩	-14110
▁줬어	-14111
▁지적	-14112
▁직쏘	-14113
▁진다	-14114
▁쫄깃	-14115
▁찾고	-14116
▁청년	-14117
▁치킨	-14118
▁카우	-14119
▁클라	-14120
▁평정	-14121
▁푹빠	-14122
▁한몫	-14123
▁할듯	-14124
▁향기	-14125
▁황진	-14126
▁후기	-14127
▁훌쩍	-14128
▁흐흐	-14129
▁흔히	-14130
가네요	-14131
가보다	-14132
가야지	-14133
감동의	-14134
갔으면	-14135
게리온	-14136
결말도	-14137
구성이	-14138
귀엽고	-14139
그래요	-14140
그렇다	-14141
나가는	-14142
나오지	-14143
남자가	-14144
놈들아	-14145
는다면	-14146
도없다	-14147
도없이	-14148
되다니	-14149
되지만	-14150
때부터	-14151
떄문에	-14152
렸지만	-14153
로맨틱	-14154
만들지	-14155
모로우	-14156
번이상	-14157
부분도	-14158
분들께	-14159
사랑과	-14160
시절의	-14161
시켰다	-14162
실에서	-14163
십니까	-14164
안나옴	-14165
액션도	-14166
없었음	-14167
연출력	-14168
였다고	-14169
예전에	-14170
위에서	-14171
으니깐	-14172
이면서	-14173
이연걸	-14174
이유는	-14175
일까요	-14176
있구나	-14177
자마자	-14178
자에게	-14179
자이상	-14180
재밌네	-14181
정도다	-14182
제작비	-14183
졌네요	-14184
주고싶	-14185
죽이는	-14186
줬는데	-14187
지금은	-14188
지않나	-14189
짜증남	-14190
카메라	-14191
티스트	-14192
파이팅	-14193
편이나	-14194
한거야	-14195
한것도	-14196
해서는	-14197
reat	-14198
▁444	-14199
▁You	-14200
▁but	-14201
▁ᄋᄋᄋ	-14202
▁가난한	-14203
▁가문의	-14204
▁가치는	-14205
▁감성에	-14206
▁강력한	-14207
▁같으니	-14208
▁개허접	-14209
▁겁니다	-14210
▁결말의	-14211
▁고스트	-14212
▁과거의	-14213
▁과하다	-14214
▁그것뿐	-14215
▁그놈의	-14216
▁그랬어	-14217
▁그치만	-14218
▁근래에	-14219
▁금요일	-14220
▁끝날때	-14221
▁나까지	-14222
▁나쁜놈	-14223
▁나온건	-14224
▁나올수	-14225
▁나와요	-14226
▁난잡한	-14227
▁남녀의	-14228
▁놀라움	-14229
▁놈들이	-14230
▁누구를	-14231
▁눈물도	-14232
▁눈물은	-14233
▁느끼지	-14234
▁다문화	-14235
▁답없다	-14236
▁당시의	-14237
▁댓글이	-14238
▁던지는	-14239
▁	-14240
.	-14241
이	-14242
다	-14243
는	-14244
화	-14245
영	-14246
고	-14247
지	-14248
가	-14249
하	-14250
아	-14251
도	-14252
ᄏ	-14253
에	-14254
나	-14255
기	-14256
!	-14257
한	-14258
어	-14259
보	-14260
만	-14261
의	-14262
요	-14263
재	-14264
은	-14265
게	-14266
리	-14267
로	-14268
라	-14269
니	-14270
을	-14271
서	-14272
미	-14273
인	-14274
들	-14275
시	-14276
그	-14277
무	-14278
없	-14279
스	-14280
정	-14281
,	-14282
데	-14283
있	-14284
점	-14285
말	-14286
네	-14287
대	-14288
~	-14289
?	-14290
진	-14291
마	-14292
음	-14293
해	-14294
면	-14295
사	-14296
감	-14297
내	-14298
전	-14299
수	-14300
연	-14301
거	-14302
자	-14303
좋	-14304
를	-14305
주	-14306
너	-14307
작	-14308
으	-14309
우	-14310
1	-14311
오	-14312
었	-14313
드	-14314
장	-14315
안	-14316
최	-14317
여	-14318
짜	-14319
야	-14320
상	-14321
까	-14322
봤	-14323
밌	-14324
0	-14325
적	-14326
생	-14327
ᅲ	-14328
제	-14329
동	-14330
간	-14331
평	-14332
더	-14333
개	-14334
것	-14335
;	-14336
했	-14337
구	-14338
일	-14339
부	-14340
런	-14341
본	-14342
중	-14343
같	-14344
성	-14345
소	-14346
건	-14347
모	-14348
과	-14349
운	-14350
^	-14351
비	-14352
았	-14353
러	-14354
와	-14355
치	-14356
신	-14357
ᄒ	-14358
유	-14359
던	-14360
때	-14361
레	-14362
할	-14363
않	-14364
용	-14365
루	-14366
배	-14367
잘	-14368
히	-14369
공	-14370
랑	-14371
세	-14372
분	-14373
되	-14374
각	-14375
려	-14376
습	-14377
토	-14378
래	-14379
실	-14380
난	-14381
함	-14382
왜	-14383
디	-14384
국	-14385
남	-14386
저	-14387
2	-14388
명	-14389
봐	-14390
볼	-14391
ᅳ	-14392
터	-14393
못	-14394
별	-14395
조	-14396
독	-14397
임	-14398
쓰	-14399
알	-14400
악	-14401
느	-14402
듯	-14403
반	-14404
싶	-14405
애	-14406
르	-14407
O	-14408
편	-14409
원	-14410
겠	-14411
역	-14412
심	-14413
걸	-14414
입	-14415
준	-14416
바	-14417
잼	-14418
타	-14419
물	-14420
람	-14421
막	-14422
금	-14423
든	-14424
름	-14425
노	-14426
완	-14427
력	-14428
뭐	-14429
냥	-14430
버	-14431
포	-14432
웃	-14433
추	-14434
좀	-14435
년	-14436
코	-14437
예	-14438
냐	-14439
트	-14440
망	-14441
였	-14442
당	-14443
단	-14444
억	-14445
션	-14446
번	-14447
많	-14448
처	-14449
매	-14450
-	-14451
두	-14452
끝	-14453
선	-14454
위	-14455
렇	-14456
ᅮ	-14457
줄	-14458
현	-14459
3	-14460
문	-14461
품	-14462
발	-14463
긴	-14464
박	-14465
울	-14466
참	-14467
속	-14468
극	-14469
후	-14470
관	-14471
프	-14472
체	-14473
결	-14474
출	-14475
잔	-14476
설	-14477
살	-14478
린	-14479
워	-14480
깝	-14481
직	-14482
질	-14483
넘	-14484
불	-14485
액	-14486
된	-14487
눈	-14488
따	-14489
절	-14490
짱	-14491
강	-14492
릴	-14493
답	-14494
계	-14495
o	-14496
죽	-14497
허	-14498
경	-14499
메	-14500
님	-14501
김	-14502
길	-14503
차	-14504
엔	-14505
멋	-14506
군	-14507
천	-14508
크	-14509
청	-14510
식	-14511
머	-14512
합	-14513
즈	-14514
괜	-14515
초	-14516
돈	-14517
교	-14518
피	-14519
른	-14520
족	-14521
날	-14522
행	-14523
빠	-14524
럽	-14525
호	-14526
필	-14527
슬	-14528
판	-14529
방	-14530
파	-14531
9	-14532
먹	-14533
4	-14534
란	-14535
찮	-14536
e	-14537
티	-14538
또	-14539
밋	-14540
5	-14541
근	-14542
슨	-14543
친	-14544
올	-14545
'	-14546
움	-14547
형	-14548
온	-14549
몰	-14550
증	-14551
회	-14552
t	-14553
귀	-14554
민	-14555
순	-14556
겨	-14557
졸	-14558
급	-14559
학	-14560
존	-14561
캐	-14562
엄	-14563
낌	-14564
뻔	-14565
굿	-14566
♥	-14567
언	-14568
뭔	-14569
달	-14570
8	-14571
꼭	-14572
목	-14573
새	-14574
표	-14575
특	-14576
집	-14577
s	-14578
글	-14579
맞	-14580
슴	-14581
맨	-14582
록	-14583
카	-14584
류	-14585
받	-14586
져	-14587
키	-14588
씨	-14589
얼	-14590
복	-14591
ᄃ	-14592
끼	-14593
7	-14594
낮	-14595
케	-14596
색	-14597
누	-14598
닌	-14599
돌	-14600
충	-14601
림	-14602
딩	-14603
a	-14604
흥	-14605
렸	-14606
왔	-14607
외	-14608
희	-14609
태	-14610
테	-14611
등	-14612
산	-14613
힘	-14614
브	-14615
높	-14616
훈	-14617
혀	-14618
d	-14619
양	-14620
약	-14621
잡	-14622
갈	-14623
ᄍ	-14624
격	-14625
녀	-14626
론	-14627
뿐	-14628
담	-14629
술	-14630
ᄋ	-14631
열	-14632
웠	-14633
봉	-14634
며	-14635
통	-14636
i	-14637
솔	-14638
)	-14639
베	-14640
탄	-14641
욕	-14642
_	-14643
찍	-14644
엇	-14645
환	-14646
쁘	-14647
쉬	-14648
릭	-14649
쉽	-14650
씬	-14651
황	-14652
6	-14653
n	-14654
픈	-14655
랜	-14656
놀	-14657
능	-14658
(	-14659
링	-14660
종	-14661
팅	-14662
범	-14663
몇	-14664
쾌	-14665
r	-14666
b	-14667
밖	-14668
쳐	-14669
엉	-14670
럼	-14671
삼	-14672
투	-14673
"	-14674
딱	-14675
죠	-14676
g	-14677
뜻	-14678
접	-14679
싸	-14680
블	-14681
병	-14682
늘	-14683
패	-14684
찾	-14685
클	-14686
될	-14687
즐	-14688
퍼	-14689
떨	-14690
/	-14691
섭	-14692
놓	-14693
믿	-14694
손	-14695
혼	-14696
깊	-14697
킬	-14698
잇	-14699
T	-14700
립	-14701
맛	-14702
l	-14703
승	-14704
졌	-14705
향	-14706
났	-14707
왕	-14708
백	-14709
홍	-14710
큼	-14711
B	-14712
석	-14713
잠	-14714
꺼	-14715
즘	-14716
창	-14717
께	-14718
광	-14719
딴	-14720
송	-14721
잊	-14722
c	-14723
v	-14724
S	-14725
벽	-14726
갑	-14727
먼	-14728
권	-14729
겁	-14730
h	-14731
봄	-14732
봣	-14733
짐	-14734
빨	-14735
써	-14736
놈	-14737
휴	-14738
싫	-14739
줘	-14740
떻	-14741
찬	-14742
껴	-14743
C	-14744
뒤	-14745
빼	-14746
쟁	-14747
삶	-14748
변	-14749
폭	-14750
팬	-14751
떠	-14752
커	-14753
짝	-14754
죄	-14755
법	-14756
채	-14757
빈	-14758
덕	-14759
앞	-14760
큐	-14761
m	-14762
락	-14763
괴	-14764
뭘	-14765
룡	-14766
객	-14767
책	-14768
꾸	-14769
돋	-14770
옛	-14771
훌	-14772
곤	-14773
꿀	-14774
업	-14775
엽	-14776
걍	-14777
깨	-14778
낚	-14779
효	-14780
낭	-14781
암	-14782
륭	-14783
견	-14784
플	-14785
ᄉ	-14786
G	-14787
흐	-14788
됨	-14789
빙	-14790
낫	-14791
쁜	-14792
쌍	-14793
닥	-14794
믹	-14795
헐	-14796
+	-14797
월	-14798
D	-14799
첨	-14800
윤	-14801
풍	-14802
밀	-14803
u	-14804
확	-14805
V	-14806
끔	-14807
맘	-14808
철	-14809
훨	-14810
f	-14811
탈	-14812
짓	-14813
쩔	-14814
총	-14815
똥	-14816
굳	-14817
페	-14818
숨	-14819
몸	-14820
>	-14821
콩	-14822
틀	-14823
쩌	-14824
취	-14825
줌	-14826
큰	-14827
쓸	-14828
잖	-14829
련	-14830
즌	-14831
뛰	-14832
벌	-14833
궁	-14834
♡	-14835
끌	-14836
욱	-14837
찌	-14838
굴	-14839
둘	-14840
째	-14841
낸	-14842
빵	-14843
끄	-14844
왠	-14845
랐	-14846
갔	-14847
침	-14848
꼬	-14849
혹	-14850
롭	-14851
y	-14852
풀	-14853
겼	-14854
틱	-14855
얘	-14856
멜	-14857
춘	-14858
꽤	-14859
꿈	-14860
멘	-14861
묘	-14862
빛	-14863
척	-14864
혜	-14865
웅	-14866
험	-14867
돼	-14868
튼	-14869
득	-14870
줬	-14871
랄	-14872
겟	-14873
럭	-14874
활	-14875
:	-14876
텐	-14877
젠	-14878
떤	-14879
M	-14880
택	-14881
흘	-14882
ᄀ	-14883
ᄇ	-14884
*	-14885
골	-14886
징	-14887
흑	-14888
됐	-14889
팔	-14890
착	-14891
섹	-14892
헤	-14893
땜	-14894
랬	-14895
슈	-14896
옴	-14897
칠	-14898
낄	-14899
십	-14900
멍	-14901
흠	-14902
햇	-14903
뜨	-14904
젤	-14905
첫	-14906
k	-14907
찰	-14908
읽	-14909
갖	-14910
픽	-14911
F	-14912
북	-14913
p	-14914
셨	-14915
흔	-14916
뻐	-14917
깔	-14918
딸	-14919
럴	-14920
맥	-14921
슷	-14922
압	-14923
츠	-14924
똑	-14925
응	-14926
익	-14927
빌	-14928
항	-14929
펑	-14930
셔	-14931
콜	-14932
ᄂ	-14933
밑	-14934
w	-14935
겹	-14936
닝	-14937
앗	-14938
쿠	-14939
쇼	-14940
놔	-14941
겐	-14942
엘	-14943
료	-14944
율	-14945
쳤	-14946
굉	-14947
픔	-14948
숙	-14949
듬	-14950
널	-14951
A	-14952
쯤	-14953
켜	-14954
쓴	-14955
곡	-14956
컬	-14957
벗	-14958
곳	-14959
풋	-14960
%	-14961
옥	-14962
륜	-14963
콤	-14964
뮤	-14965
틴	-14966
몽	-14967
폐	-14968
깐	-14969
킨	-14970
듣	-14971
랍	-14972
센	-14973
덜	-14974
핵	-14975
<	-14976
=	-14977
샤	-14978
ᄌ	-14979
섬	-14980
힐	-14981
싱	-14982
끈	-14983
잃	-14984
탕	-14985
념	-14986
축	-14987
규	-14988
검	-14989
협	-14990
I	-14991
육	-14992
닐	-14993
령	-14994
웨	-14995
E	-14996
촌	-14997
짧	-14998
꼽	-14999
셈	-15000
ᄅ	-15001
렌	-15002
렵	-15003
댓	-15004
릿	-15005
쪽	-15006
률	-15007
묻	-15008
땐	-15009
탁	-15010
쩐	-15011
엿	-15012
깜	-15013
씩	-15014
찝	-15015
균	-15016
볍	-15017
밥	-15018
앙	-15019
염	-15020
춤	-15021
킹	-15022
렬	-15023
젊	-15024
맹	-15025
잤	-15026
ᄆ	-15027
푸	-15028
잉	-15029
량	-15030
헌	-15031
뇌	-15032
껏	-15033
넣	-15034
쥐	-15035
찡	-15036
랫	-15037
밤	-15038
쎄	-15039
흡	-15040
엑	-15041
@	-15042
낀	-15043
랙	-15044
램	-15045
z	-15046
꼴	-15047
멀	-15048
앤	-15049
옹	-15050
x	-15051
꼈	-15052
X	-15053
콘	-15054
됬	-15055
뽕	-15056
떡	-15057
닿	-15058
논	-15059
늙	-15060
윌	-15061
턴	-15062
뷰	-15063
씁	-15064
퀄	-15065
혁	-15066
힌	-15067
농	-15068
쵝	-15069
&	-15070
냈	-15071
붙	-15072
뜬	-15073
벤	-15074
쥬	-15075
홀	-15076
뭉	-15077
씀	-15078
★	-15079
렉	-15080
촬	-15081
칼	-15082
퉁	-15083
늦	-15084
납	-15085
벨	-15086
잭	-15087
롱	-15088
쩝	-15089
꽃	-15090
몬	-15091
N	-15092
쁨	-15093
폰	-15094
j	-15095
썩	-15096
컨	-15097
꽝	-15098
땅	-15099
쏘	-15100
웬	-15101
톰	-15102
뉴	-15103
봅	-15104
짠	-15105
좌	-15106
쯧	-15107
폴	-15108
뚱	-15109
뒷	-15110
퇴	-15111
쫌	-15112
놨	-15113
됩	-15114
ᅡ	-15115
껄	-15116
갓	-15117
묵	-15118
톤	-15119
떄	-15120
뜩	-15121
맙	-15122
삭	-15123
븐	-15124
텔	-15125
덩	-15126
첩	-15127
P	-15128
ᅩ	-15129
갱	-15130
닫	-15131
펐	-15132
값	-15133
뿌	-15134
탑	-15135
겉	-15136
덤	-15137
벼	-15138
빡	-15139
R	-15140
`	-15141
줍	-15142
휘	-15143
룬	-15144
얻	-15145
끊	-15146
쩜	-15147
캬	-15148
K	-15149
L	-15150
헛	-15151
혐	-15152
밝	-15153
팀	-15154
왓	-15155
숭	-15156
춰	-15157
푹	-15158
낳	-15159
냄	-15160
녹	-15161
롯	-15162
썼	-15163
붕	-15164
흉	-15165
닮	-15166
둥	-15167
렁	-15168
므	-15169
뿔	-15170
팍	-15171
획	-15172
ᅵ	-15173
셀	-15174
낙	-15175
렷	-15176
넌	-15177
멸	-15178
씹	-15179
엠	-15180
뢰	-15181
컴	-15182
댄	-15183
례	-15184
뱀	-15185
틈	-15186
퓨	-15187
꿔	-15188
넹	-15189
봇	-15190
탐	-15191
챙	-15192
꾼	-15193
[	-15194
땡	-15195
섯	-15196
젼	-15197
냉	-15198
컷	-15199
갠	-15200
빅	-15201
]	-15202
뽀	-15203
칸	-15204
멈	-15205
튀	-15206
W	-15207
깎	-15208
왤	-15209
측	-15210
혈	-15211
뻤	-15212
낼	-15213
뎀	-15214
략	-15215
퀴	-15216
밍	-15217
칭	-15218
펜	-15219
뎁	-15220
털	-15221
ᄎ	-15222
곱	-15223
샘	-15224
섞	-15225
톱	-15226
뀌	-15227
녕	-15228
쩡	-15229
빗	-15230
옷	-15231
웰	-15232
껐	-15233
딘	-15234
닉	-15235
떼	-15236
롤	-15237
룩	-15238
쿵	-15239
ᅥ	-15240
옆	-15241
칙	-15242
펙	-15243
폼	-15244
핀	-15245
뚝	-15246
뭥	-15247
팩	-15248
깡	-15249
벅	-15250
윈	-15251
H	-15252
긋	-15253
깍	-15254
맡	-15255
켓	-15256
듭	-15257
덴	-15258
틸	-15259
쏟	-15260
팝	-15261
깁	-15262
렐	-15263
뽑	-15264
찜	-15265
넷	-15266
둔	-15267
늑	-15268
숀	-15269
핑	-15270
헬	-15271
닷	-15272
뎅	-15273
딧	-15274
델	-15275
쏠	-15276
쿡	-15277
닙	-15278
렀	-15279
쯔	-15280
콧	-15281
쿨	-15282
텝	-15283
얄	-15284
짬	-15285
탓	-15286
곰	-15287
곽	-15288
앉	-15289
찐	-15290
J	-15291
둑	-15292
뷔	-15293
낯	-15294
싼	-15295
딜	-15296
랭	-15297
넬	-15298
앨	-15299
죤	-15300
U	-15301
닼	-15302
셉	-15303
욤	-15304
쭉	-15305
쪼	-15306
츄	-15307
층	-15308
컥	-15309
읍	-15310
ᄊ	-15311
뗄	-15312
렛	-15313
싹	-15314
ᄡ	-15315
ᅢ	-15316
뱅	-15317
삐	-15318
샌	-15319
땀	-15320
젖	-15321
켄	-15322
탱	-15323
펼	-15324
쟈	-15325
팠	-15326
곧	-15327
앵	-15328
Y	-15329
닭	-15330
똘	-15331
뚜	-15332
썰	-15333
웟	-15334
컸	-15335
ᄁ	-15336
렴	-15337
옵	-15338
쫄	-15339
띄	-15340
깃	-15341
헉	-15342
껀	-15343
둡	-15344
밴	-15345
삽	-15346
찢	-15347
튜	-15348
핫	-15349
랩	-15350
셜	-15351
킥	-15352
눌	-15353
뭣	-15354
밧	-15355
툰	-15356
릅	-15357
맴	-15358
뻥	-15359
엣	-15360
찔	-15361
ᄐ	-15362
맑	-15363
쉐	-15364
캅	-15365
퉤	-15366
랴	-15367
뻑	-15368
셰	-15369
첼	-15370
콕	-15371
톡	-15372
겻	-15373
뜸	-15374
쌩	-15375
쨌	-15376
캡	-15377
틋	-15378
홈	-15379
겪	-15380
됫	-15381
빕	-15382
셋	-15383
앜	-15384
켰	-15385
띠	-15386
쇄	-15387
짤	-15388
맺	-15389
젝	-15390
쩍	-15391
템	-15392
핸	-15393
둠	-15394
몫	-15395
밨	-15396
썬	-15397
캠	-15398
퀸	-15399
걷	-15400
귄	-15401
끗	-15402
냅	-15403
뚫	-15404
뻣	-15405
왈	-15406
웍	-15407
홧	-15408
훗	-15409
걱	-15410
긍	-15411
펭	-15412
맷	-15413
뭇	-15414
및	-15415
짙	-15416
팡	-15417
팽	-15418
↓	-15419
꽉	-15420
랏	-15421
뿜	-15422
삘	-15423
욬	-15424
줫	-15425
쭈	-15426
푼	-15427
혔	-15428
긔	-15429
뜯	-15430
릇	-15431
릉	-15432
밉	-15433
쉴	-15434
웹	-15435
윽	-15436
덮	-15437
쌈	-15438
썸	-15439
잣	-15440
킴	-15441
툭	-15442
궈	-15443
믄	-15444
솜	-15445
엮	-15446
옳	-15447
턱	-15448
☆	-15449
늬	-15450
붉	-15451
셧	-15452
숲	-15453
썻	-15454
쏴	-15455
얀	-15456
웩	-15457
훼	-15458
힙	-15459
뤄	-15460
쉣	-15461
캔	-15462
ᅦ	-15463
멤	-15464
쒸	-15465
좆	-15466
킵	-15467
핳	-15468
헷	-15469
人	-15470
겄	-15471
끓	-15472
넼	-15473
듦	-15474
땠	-15475
렘	-15476
룰	-15477
룸	-15478
쫓	-15479
펠	-15480
헨	-15481
꽁	-15482
덧	-15483
엌	-15484
졋	-15485
훔	-15486
꺄	-15487
힛	-15488
Z	-15489
q	-15490
빤	-15491
뼈	-15492
샀	-15493
샬	-15494
쉰	-15495
앓	-15496
짖	-15497
횽	-15498
#	-15499
꿨	-15500
닦	-15501
댐	-15502
빚	-15503
뺏	-15504
쇠	-15505
옮	-15506
췄	-15507
텅	-15508
헝	-15509
흰	-15510
·	-15511
덥	-15512
됌	-15513
잎	-15514
켈	-15515
ᅭ	-15516
ᆞ	-15517
갇	-15518
됴	-15519
멕	-15520
뭡	-15521
쏙	-15522
얌	-15523
탠	-15524
탤	-15525
펀	-15526
ᄑ	-15527
넓	-15528
뎌	-15529
밟	-15530
쌓	-15531
쑤	-15532
욜	-15533
젬	-15534
쬐	-15535
컵	-15536
톨	-15537
펄	-15538
。	-15539
껍	-15540
듀	-15541
륙	-15542
슐	-15543
챔	-15544
곁	-15545
꼇	-15546
녁	-15547
뉘	-15548
댕	-15549
둬	-15550
딨	-15551
럿	-15552
륵	-15553
밸	-15554
뺨	-15555
뻘	-15556
즉	-15557
쨩	-15558
쿄	-15559
쿼	-15560
흙	-15561
겸	-15562
꾹	-15563
댈	-15564
딕	-15565
벙	-15566
샷	-15567
썅	-15568
욧	-15569
쫙	-15570
칩	-15571
햄	-15572
甲	-15573
귓	-15574
넋	-15575
돕	-15576
뒀	-15577
띵	-15578
샹	-15579
숫	-15580
쫒	-15581
칫	-15582
퀀	-15583
펴	-15584
乃	-15585
닳	-15586
묶	-15587
쪄	-15588
췌	-15589
텀	-15590
핏	-15591
無	-15592
뀐	-15593
뇨	-15594
떳	-15595
룹	-15596
뱉	-15597
쌀	-15598
쌔	-15599
엎	-15600
엥	-15601
왼	-15602
젓	-15603
쨋	-15604
핡	-15605
횡	-15606
ᅣ	-15607
괘	-15608
꺅	-15609
꼼	-15610
쌤	-15611
앳	-15612
얽	-15613
웁	-15614
쵸	-15615
켠	-15616
펏	-15617
힝	-15618
○	-15619
갤	-15620
굵	-15621
깬	-15622
꾀	-15623
녔	-15624
뤽	-15625
뺴	-15626
솟	-15627
쑈	-15628
씻	-15629
얕	-15630
쟝	-15631
홉	-15632
갸	-15633
겜	-15634
깽	-15635
꽂	-15636
넨	-15637
놉	-15638
눠	-15639
붐	-15640
뷁	-15641
셸	-15642
슌	-15643
싯	-15644
쥑	-15645
쪙	-15646
킷	-15647
탭	-15648
팜	-15649
퍽	-15650
핍	-15651
햐	-15652
Q	-15653
\	-15654
ᅧ	-15655
♬	-15656
굼	-15657
낡	-15658
돠	-15659
됀	-15660
뺀	-15661
뺐	-15662
섰	-15663
썽	-15664
좁	-15665
짚	-15666
쳇	-15667
촉	-15668
꽥	-15669
꿋	-15670
뎈	-15671
롬	-15672
뮬	-15673
밭	-15674
벡	-15675
쉘	-15676
얹	-15677
욯	-15678
웡	-15679
윗	-15680
윙	-15681
읎	-15682
짭	-15683
쨔	-15684
킁	-15685
탔	-15686
픕	-15687
휼	-15688
→	-15689
겅	-15690
곸	-15691
괸	-15692
꿉	-15693
낱	-15694
늠	-15695
뜰	-15696
릎	-15697
몹	-15698
뱃	-15699
붓	-15700
뿅	-15701
옜	-15702
쳣	-15703
$	-15704
괞	-15705
꺾	-15706
넴	-15707
댜	-15708
밈	-15709
빔	-15710
빽	-15711
슥	-15712
씌	-15713
얍	-15714
얔	-15715
쥔	-15716
퀼	-15717
퉷	-15718
헴	-15719
’	-15720
긁	-15721
꺽	-15722
껑	-15723
낰	-15724
딥	-15725
뛴	-15726
멎	-15727
샴	-15728
씽	-15729
욘	-15730
잰	-15731
칵	-15732
쿤	-15733
퀘	-15734
큘	-15735
큭	-15736
겔	-15737
뇬	-15738
눅	-15739
땔	-15740
뚤	-15741
룻	-15742
쁠	-15743
잴	-15744
좃	-15745
좔	-15746
쫑	-15747
텨	-15748
풉	-15749
헠	-15750
헿	-15751
훅	-15752
휩	-15753
|	-15754
ᆪ	-15755
“	-15756
”	-15757
끽	-15758
떴	-15759
뤘	-15760
맬	-15761
멧	-15762
뭍	-15763
쁩	-15764
쏜	-15765
쒯	-15766
욥	-15767
잌	-15768
촘	-15769
춥	-15770
퐁	-15771
핥	-15772
훤	-15773
‘	-15774
♪	-15775
곀	-15776
꼐	-15777
꽈	-15778
넝	-15779
댔	-15780
믓	-15781
뵈	-15782
빰	-15783
뻗	-15784
뿡	-15785
샐	-15786
숴	-15787
융	-15788
쟤	-15789
졷	-15790
첸	-15791
츤	-15792
캣	-15793
컹	-15794
툴	-15795
팟	-15796
폄	-15797
휠	-15798
ᄈ	-15799
女	-15800
死	-15801
걔	-15802
꿰	-15803
뀔	-15804
뀨	-15805
냠	-15806
넉	-15807
넥	-15808
닛	-15809
닠	-15810
됏	-15811
땟	-15812
뿍	-15813
썹	-15814
웽	-15815
읭	-15816
죵	-15817
쨰	-15818
콥	-15819
콱	-15820
쾅	-15821
큽	-15822
텍	-15823
팰	-15824
훑	-15825
흣	-15826
̄	-15827
作	-15828
굽	-15829
깼	-15830
뀜	-15831
냔	-15832
돔	-15833
뒈	-15834
랖	-15835
뤠	-15836
먀	-15837
멱	-15838
밓	-15839
앍	-15840
앰	-15841
줏	-15842
짘	-15843
쮸	-15844
찼	-15845
촤	-15846
햌	-15847
횟	-15848
}	-15849
↑	-15850
⌒	-15851
盧	-15852
꿍	-15853
넛	-15854
덱	-15855
딪	-15856
떵	-15857
롸	-15858
뤼	-15859
벳	-15860
볶	-15861
뵙	-15862
뽐	-15863
샵	-15864
왁	-15865
졉	-15866
죨	-15867
찟	-15868
챦	-15869
촐	-15870
캉	-15871
홥	-15872
{	-15873
갘	-15874
갚	-15875
괭	-15876
깅	-15877
깟	-15878
꺠	-15879
낍	-15880
놧	-15881
뎃	-15882
띨	-15883
랗	-15884
렜	-15885
륨	-15886
멌	-15887
뭄	-15888
뮈	-15889
벵	-15890
빴	-15891
샛	-15892
섀	-15893
숑	-15894
앟	-15895
옌	-15896
짴	-15897
챈	-15898
챠	-15899
캄	-15900
쿰	-15901
햅	-15902
햏	-15903
헥	-15904
혓	-15905
휙	-15906
흫	-15907
ᄄ	-15908
☞	-15909
、	-15910
故	-15911
有	-15912
갉	-15913
굶	-15914
궤	-15915
귯	-15916
냨	-15917
댁	-15918
됄	-15919
뒹	-15920
딛	-15921
떙	-15922
렙	-15923
뫼	-15924
샨	-15925
셍	-15926
숟	-15927
숱	-15928
쉼	-15929
쉿	-15930
쌉	-15931
쌌	-15932
썪	-15933
쎈	-15934
쎼	-15935
엊	-15936
옄	-15937
옅	-15938
옼	-15939
왘	-15940
욀	-15941
읏	-15942
잏	-15943
졍	-15944
쥴	-15945
쨉	-15946
쫀	-15947
쫘	-15948
쭝	-15949
찹	-15950
챘	-15951
촛	-15952
킈	-15953
텼	-15954
팥	-15955
─	-15956
し	-15957
ン	-15958
好	-15959
갬	-15960
갯	-15961
껌	-15962
꼰	-15963
꿇	-15964
끅	-15965
끙	-15966
뇽	-15967
뉜	-15968
늪	-15969
돗	-15970
둣	-15971
땃	-15972
떔	-15973
떽	-15974
랔	-15975
롹	-15976
룽	-15977
맄	-15978
몆	-15979
믈	-15980
븅	-15981
뺑	-15982
숏	-15983
얗	-15984
윅	-15985
읔	-15986
잦	-15987
좇	-15988
쥰	-15989
쩖	-15990
쯩	-15991
챤	-15992
츈	-15993
켁	-15994
퀵	-15995
킼	-15996
